/**
  ******************************************************************************
  * @file    network_data_params.c
  * @author  AST Embedded Analytics Research Platform
  * @date    Wed Apr 12 12:20:58 2023
  * @brief   AI Tool Automatic Code Generator for Embedded NN computing
  ******************************************************************************
  * Copyright (c) 2023 STMicroelectronics.
  * All rights reserved.
  *
  * This software is licensed under terms that can be found in the LICENSE file
  * in the root directory of this software component.
  * If no LICENSE file comes with this software, it is provided AS-IS.
  ******************************************************************************
  */

#include "network_data_params.h"


/**  Activations Section  ****************************************************/
ai_handle g_network_activations_table[1 + 2] = {
  AI_HANDLE_PTR(AI_MAGIC_MARKER),
  AI_HANDLE_PTR(NULL),
  AI_HANDLE_PTR(AI_MAGIC_MARKER),
};




/**  Weights Section  ********************************************************/
AI_ALIGNED(32)
const ai_u64 s_network_weights_array_u64[157640] = {
  0xbd5ad860bcfe5accU, 0x3d3508d33d6a6334U, 0x3da3b210bd583006U, 0xbcbb2d6c3ca38a1eU,
  0x3cdb82e7bd28949cU, 0xbcece8d83cd8a906U, 0xbc860b1c3c2438bcU, 0x3d5e40cfbd0eda06U,
  0xbc8d12933d67812eU, 0xbd801561bd839b3dU, 0xbd64a12cbd682855U, 0xbd74da88bd287725U,
  0x3d8de4e33d37bd0cU, 0x3d97a2ce3c4a5a09U, 0x3d9ab99d3d5696feU, 0x3d25258bbcc33374U,
  0xbd450138bc625c0cU, 0xbcd56f763cb60056U, 0xbdafc4a53d4c3e5aU, 0x3c1b841fbd74abf6U,
  0xbdadca2cbd6e196bU, 0x3cf3992abccf6598U, 0xbda0c5a9bcbb7a1cU, 0xbd8f7324bcf0bf7aU,
  0xbd69047b3ca81797U, 0x3c7834c33d80f591U, 0xbd31187ebd6192cbU, 0xbd799a22bdb400fdU,
  0xbce83c4e3d6a83a3U, 0x3d969906bdb6d098U, 0x3d023b663cb3ce6dU, 0xbccbea22bce30d5cU,
  0xbd31057abd838dafU, 0x3d7536f93d447be0U, 0xbda8156dbcd0a42cU, 0x3d80d8b2bd0666e0U,
  0x3cf720153c96f847U, 0xbd11f3ac3d4727b6U, 0xbc9894003d9e5142U, 0xbdb10b423d7089fdU,
  0xbda4121f3c406618U, 0xbd6e81cabd923fdaU, 0xbd41a9f8bd9af1b2U, 0x3cbcbb5ebdb4793aU,
  0x3d150ea4bda41aeeU, 0x3c0af924bd052950U, 0xbd8ab88f3d2847e0U, 0xbdb39b0cbd9079c2U,
  0xbd6d0e433cebe3d4U, 0xbd8da2bdbb33bf66U, 0xbce976a4bd8cf37dU, 0x3c6f5574bd19c2a7U,
  0x3da5dc03bd9ae6b1U, 0xbda61f703d86c30cU, 0xbccec82ebd71a54bU, 0xbd6e00583c37a032U,
  0x3c065bbb3cd8dc20U, 0xbcd9866bbd8a4764U, 0x3d8d743cbd36c275U, 0xba9ae820bbcc0df9U,
  0x3d8ff57dbd86131fU, 0xbd8769af3c8a8918U, 0x3d6f2a083d6faf0aU, 0x3cbebb5ebd11b074U,
  0x3c59fb30bd456f58U, 0x3d55213d3d58c47aU, 0xbd9da2cabd62283eU, 0xbd8101083da56bf3U,
  0x3d104306bda0dfbbU, 0xba87d9d83d9b8bd3U, 0x3cd863b2bd04be43U, 0xbd5bab0e3c2f2a58U,
  0x3d9e195a3c8f3958U, 0x3acbc5b83cfa0cc4U, 0x3da663a93c1000e4U, 0x3d95d639bdb0ae64U,
  0x3d538bb43cab5f63U, 0x3d905bc13b47a2f8U, 0x3d94fb1d3cb9d658U, 0xbd18f4debd7fc204U,
  0xbd1e4643bd94fdb0U, 0xbd28ccdd3d838f18U, 0x3d2a869a3d11c0cbU, 0x3d9fed823d8dd0c2U,
  0x3cf7a07dbcc219a0U, 0xbd021cc1bd4379f2U, 0x3bdd28f2bd9060f0U, 0xbcd50744bd9e5a2dU,
  0x3d7eb151bd74d7aeU, 0xbd97cc203d950540U, 0x3d28678cbdba6a6aU, 0xbb677f50bb9def9bU,
  0xbd752aea3c64aa6fU, 0x3d9ab8e53c4b5ce4U, 0xbd55c4843d839ff1U, 0x3d08d0463cbe45bdU,
  0x3d4e9ecebce5197dU, 0xbcef3d683d8a3572U, 0x3d0ffb78bd65a1eeU, 0x3d931326bdab51d2U,
  0x3d23c82b3ba65c72U, 0x3d2e60fd3b90dfbaU, 0x3d432f063d3db7a5U, 0xbcca4aea3b0d82ccU,
  0xbb88368c3d1040e2U, 0x3cadf0da3d7ea970U, 0xbd824965bbe53a65U, 0x3d3c61863d33b58fU,
  0x3d56e9ae3d7c356eU, 0xbd5c02d93ca6522cU, 0x3d898b003d8bbab4U, 0x3d89f5be3d97aab6U,
  0x3d0fc362bd515705U, 0xbd1ba0453d81ed8aU, 0x3986ee60bd805be6U, 0x3d05f384bccc4273U,
  0xbc398bc7bc2de42fU, 0x3d9215e73a3c2790U, 0xbc9d5046bd87e8efU, 0x3b3817cabdb15dc4U,
  0x3ce813da3d22207fU, 0xbc53715c3cd75f54U, 0xbdae59403cb0879eU, 0xbd814208bd337e46U,
  0xbdad62743b33f8b0U, 0xbd4e912b3c9a985eU, 0xbd222a39bd76416cU, 0xbd9041e23da8c2eaU,
  0xbbda3c4ebcfc0b20U, 0xbcee2620bb8e36daU, 0xbd853a593da1e417U, 0xbd93d3293d977f81U,
  0x3c0a38aebb158374U, 0xbb76c8e83d6c5f24U, 0x3d9931033d3d360fU, 0xbd89f986bce9e8f2U,
  0xbc9eb4933d67484dU, 0x3d24e7ba3d96f121U, 0x3d3a0282bd996253U, 0x3c736427bd26f363U,
  0x3d0e6dbcbdb5a1c1U, 0x3d3650b63d82e216U, 0xbc8edaa6bd7cca23U, 0xbda3a5b6bd66dfd0U,
  0xbd95194f3c214e7cU, 0x3d9d1afebcad89b9U, 0x3d2a4919bc40ae4cU, 0xbdaa3a61bd9e07e4U,
  0x3d6066243bcad82cU, 0x3d9c11fe3d95dce1U, 0x3d4e1d423ce0a433U, 0xbd96eb6a3ba1b24fU,
  0x3d3c0acdbd3e0784U, 0x3beb5ac3bd1fad61U, 0x3dac33173dacce52U, 0x3d91dc9bbd459d63U,
  0x3d15b922bbfc77f6U, 0x3d8446633b8ac5ebU, 0xbd333a5f3b98db8fU, 0xbc8a42d63d881e94U,
  0xbcf7dece3c24d4feU, 0xbbfe96fbbc1eceb5U, 0xbdb09a8d3d7e5183U, 0xbd03c501bd65194fU,
  0x3d6349783c519339U, 0xbcb58d11bd1a8addU, 0xbd1709913d9c28b6U, 0x3c6445fd3cb7f312U,
  0xbbfae43bbb779b1aU, 0xbd8eef7e3b995e62U, 0xbc237ed8bae3f6c2U, 0xbae5c51cbc80b46dU,
  0xbcaa62e23d4c0db7U, 0x3da7b0e53dad8648U, 0x3d04ee39bda0e609U, 0xbdad5ef8bd48704fU,
  0xbbb17dc9bd4b86f6U, 0x3bb49c65ba966ec9U, 0x3d0dc186bd59540cU, 0xbd88f2d53c7a536fU,
  0xbcd5822e3beaad78U, 0xbd2bdafd3d810439U, 0x3c7e703abc5a7cc9U, 0x3d82b14c3d8ee9c2U,
  0xbbe0da7d3c2ce8c5U, 0xbd5756f53d4fd563U, 0xbcb46c583d516a15U, 0x3d96708d3cb76719U,
  0x3cd040f8bd2cced1U, 0x3dacbe9b3d80db83U, 0xbd263d6dbab0e0c2U, 0x3d4ffeffbc8515c7U,
  0x3d89038fbd36634eU, 0xbd6ede4ebd209b77U, 0xbd1b014fbda1bd52U, 0xbdab5576bdabed9fU,
  0x3d30f4d93ce08778U, 0xbbd0f1acbb9aabe4U, 0x3ce07f233cfffe9dU, 0x3d87a0823d286b06U,
  0xbc8a30673d15ce1fU, 0xbd241668bd6ba165U, 0xbb0f77513ba534f9U, 0x3d783acbbba78af9U,
  0x3d0a2abebd104e0dU, 0xbd7c60ca3cde6869U, 0x3d971fdb3ccec355U, 0xba808f81bd974308U,
  0xbd1688d13d439e70U, 0x3c9f79143cffa12cU, 0x3d8664fc3d70e669U, 0x3cfe02a6bcdcab97U,
  0xbcb3a050bdaf7ef9U, 0xbd265c643cd3130fU, 0x3d8fdffc3c5604f9U, 0xbd366b5b3d0a2aebU,
  0xbd76261e3d768c01U, 0x3cc860c8bd67fc9dU, 0x3b86c7213d86b6a5U, 0xbd512a5c3d98e555U,
  0xbd86b960bbdf502bU, 0xbc3295f0bc9342a6U, 0xbc5b62aabc110b12U, 0xbd25f3233c5105bfU,
  0x3c7312983d58bb19U, 0xbc8da551bd89d939U, 0xbd21ea36bd195c61U, 0x3d365e22bda8dbf9U,
  0x3d83507b3cab7d3fU, 0xbc3b95333c99f14fU, 0xbd4ae24cbd94987eU, 0x3d0615f0bbad82e7U,
  0xbd37599ebcdd06b8U, 0xbd7917a7bc3e47c6U, 0x3d8cfae3bd4dc510U, 0xbd529183bcf0b044U,
  0xbc18dc523d347145U, 0x3c4cb91ebd5d9836U, 0x3d7587c3bce46361U, 0x3d774876bcd79341U,
  0xbcdfc322bd17c816U, 0xbd469e9abd39a608U, 0xbd5bf94ebbb89dbeU, 0x3cc6d69d3d63f8dbU,
  0x3d3b58c93d7b80f3U, 0x3d9923603c9e1c81U, 0x3bb61cde3d93f738U, 0xbd7f9229bd9edc07U,
  0xbc87fa98bd63e6b5U, 0xbd56dd123b015d84U, 0xbc6a0226bc5d8a4fU, 0x3d356bcdbdae26dcU,
  0xbd9d75f4bda1ccc3U, 0xbc5101bebc8c9600U, 0xbd92d91bbda12faaU, 0x3d70a4bebd4eec9cU,
  0x3d001e56bd9c2dfaU, 0xbc399d563d11f910U, 0xbd91bfeb3b52986aU, 0x3d480945bc9eb59eU,
  0x3d5459a4bd6f8a5eU, 0xbbd81597bd99e72fU, 0x3d8580b6bdb523d6U, 0xbc7d336c3c11dcfcU,
  0x3ceed939bdafff8bU, 0x3d5fac273d25c1a3U, 0x3d0f55fabd702a7eU, 0xbd4019c1bce4cf2bU,
  0xbd268b383ccc3474U, 0x3c3d19e6bd6a9d96U, 0xbbce950ebd89747eU, 0xbd3ded06bcaa15a6U,
  0x3d52908abcf16854U, 0xbd3d3098bd03a3b2U, 0x3ce2c88dbc7d6181U, 0xbc46ed283cd6733cU,
  0xbd669ae43d71a1ffU, 0xbdb1dde3bd9f2467U, 0xbd19cecebd8cb73fU, 0x3d442ddb3d815902U,
  0x3d1bffbdbd14528bU, 0x3c0f5aa73ba7416aU, 0x3a8f29183cd0839dU, 0xbd647d653dabb9d4U,
  0xbbc44dbcbcff51ceU, 0xbd1aea21bb992bf6U, 0xba9dda173d4759ddU, 0x3b8aacf2bd8cc263U,
  0x3d75f839bda6d6edU, 0xba21a3883ca2e7ecU, 0xbc792e0abd08820aU, 0xba9beb7c3ca3b90aU,
  0x3ae79fb0ba5d3c20U, 0xbd8b89dd3d00ea7bU, 0xbcee12a43d920cccU, 0xbd98d1f43ce7d1a0U,
  0xbc3a249b3d047776U, 0x3c4ab8803cf47f4aU, 0xbc1d7608bd08e789U, 0xbd9d746f3d2db11bU,
  0xbd15f4ce3ca68bebU, 0x3c06b51e3d5d14d5U, 0x3c19bbc2bd8c9707U, 0x3da2d4a3bc89b606U,
  0x3cb7dfad3d9d0607U, 0x3d8fe0983d2aae23U, 0x3d163d3ebd20f2a3U, 0x3d7ce41dbd6cb1d7U,
  0xbab653483bcf6729U, 0x3d487a513b180806U, 0x3b81ae58b9a7e430U, 0xb8b728c03d801d91U,
  0xbd64eb74bd4287c9U, 0x3c6be6b4bd88cd10U, 0x3d1f1e103ce6cd47U, 0xbcc50c033d8b8fa8U,
  0x3d072de4bc96293fU, 0xbca785103c30f242U, 0xbcbe08e2bd7b8a92U, 0x3d3f5a733d262396U,
  0x3aa8e400bd565dd2U, 0xb9e6bc303cd86d34U, 0x3d0090ca3c97da4cU, 0xbd8bf338bd861440U,
  0xbd76178ebc932018U, 0x3d798e9dbd2a1a9aU, 0xbcfa02433d4a4320U, 0xbd598f7cbdbe72bfU,
  0xb8a737c03cc10084U, 0xbd491c7dbd78ef7bU, 0xbd8ca20e3d6fb588U, 0xbd24f99bbd9c7db5U,
  0xbd200a113d1ee476U, 0x3b99a7d63d8e0d80U, 0xbb76fd4e3d2dc514U, 0x3d765c8f3d1f0118U,
  0xbc59ca2abc8802d8U, 0x3cffed7fbdae065aU, 0xbdb695733d140b3dU, 0xbcab2e94bbf910e8U,
  0x3d8b4076bcb80472U, 0xbdadf4e739e2fcb0U, 0x3d911e00bd481d0fU, 0x3cf8629d3c94ec00U,
  0x3d19f4813c4c27e6U, 0xbcaedac4bd9f99b9U, 0xbc56bb4cbda3eacfU, 0x3d105b9bbd54308fU,
  0x3c92c41ebd04a5dbU, 0xbbcd3c8abc76b6f8U, 0x3cca109d3d906741U, 0x3c409fb7bcb63fb4U,
  0x3ccf8896bdb6c166U, 0xbd8884e13bcf3f95U, 0xbd20b3a6bd518c47U, 0x3d8e3b6bbd68105bU,
  0xbcf0f06a3d6c4ab2U, 0x3c3751743d6e6c33U, 0xbd74f75f3d8726e7U, 0x3cdc7542bcf6b8cbU,
  0x3da2db1e3b860e57U, 0xbca84110bcff48b2U, 0xbd926db7bd950408U, 0xbd29a33cbd6eaeb5U,
  0x3d87d8313b0c04ccU, 0x3b5a32943b2734d6U, 0x3d1463333d34167eU, 0x3d137b1f3c23a7f9U,
  0x3bf866dfbda2d7c6U, 0xba43bfc8bd3360a6U, 0x3d403c5abdb0292dU, 0x3cd63c54bd93fb68U,
  0xbc74a0fd3d9d8fbbU, 0xbcc16a15bd78711eU, 0xbd87edc33cdb7dbbU, 0xbdb34d21bca3d0b4U,
  0x3d803314bd1d245cU, 0x3d6287da3d596953U, 0xbd1ba8c5bd64c2efU, 0xbd41660e3cd46771U,
  0xbd82bd94bda8c978U, 0xbd7b28aebdae4a1aU, 0x3c3d811ebd8a82b6U, 0x3c123936bcf53866U,
  0x3d64c1dd3d945a36U, 0x3c9fe54bbcf88fb6U, 0xbdb650e43cff3db1U, 0x3d96cfdf3c94813bU,
  0x3ce416c8bce048a9U, 0x3d9571eabdade0e8U, 0xbd7b5af13d9b9c91U, 0x3d228b09bd78aa7bU,
  0x3d86f35a3d0091afU, 0xbd86a28dbbeee6ebU, 0xbd40ae5d3d366e26U, 0xbd5bb40abd5c2a53U,
  0xbcfaa600bd3e289bU, 0x3d0be5023d9e3bc8U, 0xbc8b80f4bcf24f21U, 0x3c83855cbd52c4beU,
  0x3cc30c2b3bc37b24U, 0x3c4b422e3c67dff0U, 0xbcd5f53a3d817f15U, 0xbd36e9323c9a0f72U,
  0xbd0be8a43b9a9634U, 0xbac495783d2adb2cU, 0xbd94df6bbcce6c68U, 0x3c942c08bd379d3cU,
  0xbdb463843d90a654U, 0x3cb444a3bd9efa10U, 0xbd8e0b09bc86fc12U, 0x3b32435cbcb62673U,
  0x3ca5a12ebdbc5ea9U, 0xbca7e17ebd59c81bU, 0xbd4fefca3d40ad24U, 0xbd6ec6ecbdb6313cU,
  0xbdb586063d9534afU, 0xbb5712e83d9c933bU, 0xbcd312c03d26535eU, 0xbd0b1d5fbc08ad9fU,
  0x3d4bbbd3bd179ea1U, 0x3d47d0423c574c86U, 0x3da221103d76da2cU, 0xbcf58a6ebd83a594U,
  0x3c941feabc96dd50U, 0x3d779833bdb9cc98U, 0x3d813497bdb85d62U, 0x3ce65ae6bcc8ea16U,
  0x3da3114bbda436dfU, 0xbc9212a1bd6fd15dU, 0x3ce41359bc75cbe3U, 0xbce3bec9bda24c51U,
  0xbd9e34173d61c954U, 0xbdb81096bdbd914fU, 0xbdbf60c5bd357858U, 0x3cd745e8bd723796U,
  0x3d1944cd3d0156eeU, 0xbd53ace03cb4918eU, 0xbd0f2b90bbbfaf80U, 0xbd8b1a76bcbc2f92U,
  0xbc0c2cdf3d8399a9U, 0x3c9542b8bd22edabU, 0xbd093b723d2b5d2aU, 0xbc302764bcdb1882U,
  0xbd706022bd040d8dU, 0x3ccab5373d5efcb7U, 0xbdc2b8b4bd31fcd2U, 0xbd15c9793d9dc57dU,
  0x3d684b6dbdaf89f1U, 0xbc94513ebd6ce988U, 0x3d96b99bbc1fdd10U, 0xbd2b95a5bc46f674U,
  0xbd0dbf77bd404c56U, 0x3c3d2a28bd86170fU, 0x3d847f8f3ce7f646U, 0x3ca7e7bbbd917e2cU,
  0xbd5c3ebe3d981df4U, 0x3cd93510bd5dcbdcU, 0xbbceb6d4bd5fb411U, 0xbcceaaa2bb649efaU,
  0x3d9a6ca4bd077182U, 0xbcad5f14bda5b4b8U, 0x3c4349523d81c615U, 0x3d9a4aa6bd7fc048U,
  0xbcaf06b53d92bdd2U, 0xbd391100bdae44c9U, 0xba4371403d5148b4U, 0xbca863a2bdc0b1b5U,
  0xbdb5b9b33bb49c64U, 0xbc569d853c7f24b5U, 0x3d9cffd1bcd3899eU, 0xbc111fb9bd6117bcU,
  0x3d88616cbda3a473U, 0x3c80da46bcc76c6aU, 0x3d2b66a03d5129f9U, 0xbb1c67d6bd2ce8cdU,
  0xbcff32a6bcd1c6aeU, 0x3d1ce5eb3c347804U, 0xbc66f51cbd611300U, 0xbce06418bd0c8d3cU,
  0xbd939c023d5431b8U, 0xbd4839c43d71c19eU, 0xbc3c8010bda98fa6U, 0x3c80f6043cb59500U,
  0xbd18e423bd96d54cU, 0xbd5a9765bd152454U, 0xbd4929bcbb4aafb2U, 0xbc00c23a3d82825aU,
  0xbdc1d41ebd58cbf4U, 0x3d053fb23d63b8ccU, 0xbbac590fbba687ecU, 0xbd7bf03dbcc44132U,
  0x3d782fe1bd2b68caU, 0x3d49f65bbd2387afU, 0xbd11f0b43b144d28U, 0x3ce133e93c762633U,
  0x3c3692e63d4427fbU, 0xbbc5fbb8baabb760U, 0xbd054763bd9d3882U, 0xbd8d6c43bd81a32cU,
  0x3b071b68bb767bf8U, 0x3d222fbebd8f60e0U, 0xbdae5d03bdaba231U, 0x3d5dca893d32e38eU,
  0xbdad05fabd3133a9U, 0x3d8d28c8bd376f18U, 0xbc9bab3cbcd8c175U, 0xbd8f46ed3d9bc4b0U,
  0x3ad5b910bbe840b6U, 0xbc680c13bda13c24U, 0x3d10f4673d6fd368U, 0x3d95554b3cb242acU,
  0xbd8e7f4a3d8eb081U, 0x3ce17db9bd9f8963U, 0x3d15531ebbd30f9cU, 0xbce7eafcbd158b7dU,
  0x3ccf62bcbcd2108fU, 0x3cef661a3d9757abU, 0x3d36e5d7bd1d68b8U, 0x3d824e60bd0253b0U,
  0xbd6463b5bcac807cU, 0x3d77c9533bc5c59cU, 0xbc8ae8703c1ccf4dU, 0x3c0c8b923cb7e055U,
  0x3ca5a7bfbcc1868aU, 0xbd9548b63cc88a4fU, 0x3d858e6ebd132db3U, 0x3d7c13373ca665b6U,
  0xbd96fd74bd8876acU, 0x3d80a3f53d81332aU, 0xbd6a6a7abd4c78a1U, 0xbd000fdb3d3a93bfU,
  0xbc66d3273d9343c0U, 0x3d5e1cd83cd8e81cU, 0x3d89fc143d856cf5U, 0x3cd6c96ebd91dccaU,
  0xbcf2ffccbc8efd64U, 0x3ca652043c810130U, 0x3d3c002e3c507e9bU, 0x3bc7efecb9902e40U,
  0x3d707a8a3c9c575aU, 0xb8d74a003d977d56U, 0xbcd875513d8ecba0U, 0xbd223e933d823ccaU,
  0xbcbd5d823d6a3e07U, 0xbc1e5492bd650ad2U, 0x3d58ed93bb68d3a4U, 0xbd7a88be3d027562U,
  0xbd1054a0bda226daU, 0x3d6547973d9b422aU, 0xbd157b7ebdbeb2c3U, 0x3d487650bd18e056U,
  0xbc874492bd886d37U, 0xbda50d2abd8eee59U, 0xbd6eaed43d7c145aU, 0x3d4c9664bd03b42aU,
  0x3cb8115b3b96af1aU, 0xbda5b05fbd6dd46cU, 0xbc63ad7cbd57a390U, 0x3d4bf6f73ccaf9c1U,
  0xbd931355bd73930cU, 0x3d2c256fbda285c6U, 0xbc9b578abd9e974fU, 0xbdb3d808bc6053e2U,
  0xbd388604bd3d2b32U, 0xbc6464303d1a9ff2U, 0x3d8f3685bda24b27U, 0xbdab74ef3c934e28U,
  0xbd9fbccbbd1dc4caU, 0x3d1ee39c3d948ea8U, 0x3ca4a1703d3cf970U, 0x3c9f88eebcb16098U,
  0xbc8a8f343ce9c99cU, 0xbbedee103cf1b221U, 0x3d5d27bfbc9f3345U, 0x3d88e0ecbcf127afU,
  0x3b84e193bd99fcabU, 0xbcd444d0bd0e5362U, 0x3d95b14e3d9b60caU, 0xbba3fcea3d8565d8U,
  0x3cd4723f3cb6b669U, 0xbd557fc5bcacfa6cU, 0x3da1324f3d07816eU, 0xbdc1c8c03d5910a2U,
  0x3d25f071bc57bd58U, 0xbd3ce1be3cfcab0bU, 0x3cea5b09bdb45e86U, 0x3d99ddf03d5afdc8U,
  0x3d3c441f3d615790U, 0x3d9fb5973c604827U, 0x3d3809e73d89ba78U, 0x3cad10233d7c15dcU,
  0xbd5dca7abbc02b73U, 0xbc73b827bbea86e7U, 0x3d807dc0bd1ea3bdU, 0x3cd2fef43c0f87feU,
  0xbc4474323c631579U, 0x3c6b6b083d51f178U, 0xbd1eb110bd893d28U, 0xbda5c3e8bd7917e1U,
  0xbd9d8f4d3cd4a1f3U, 0xbd59db573cd8b024U, 0xbc300598bcdc448bU, 0x3d221466bca505f8U,
  0x3d9cf7d9bdbd16f4U, 0x3c82fe2cbda24ebdU, 0xbdb871803d80bbb9U, 0x3d0396313c95a23fU,
  0x3d982d7a3d845bd8U, 0x3d9f84bb3d1f8bf3U, 0xbdbef2b2bd01f4c3U, 0xbdb51d883bb4234dU,
  0x3d84fb63bd8bdadcU, 0x3d6fe03c3d0757c0U, 0xbb38d2f6bd465953U, 0x3cdb03d0bd879aa7U,
  0x3c1fd0db3d24bae3U, 0x3d0b91bdbbf9df9fU, 0xbd216812bd999e83U, 0xbc22f7353d7f376cU,
  0xbdb4789dbd33b7e6U, 0xbd911da8bcc53d92U, 0x3d90dba73d229106U, 0xbd82a1053d43a6b8U,
  0xbc679fa8bd2c8c8fU, 0x3d25b9f43d8f2fedU, 0x3c9cdfad3bd49eb2U, 0xbd7355ee3d83fa25U,
  0x3d8631b8bd7fc8e0U, 0x3d96687cbd692745U, 0xbda5ca91bda453d6U, 0x3d95d1f8bd2033cfU,
  0x3d5efedebd075ab1U, 0x3d936b053d84fe26U, 0x3cc7c851bc859d02U, 0x3c5c5b85bd8ae4cbU,
  0xbc6ab7b93d9338c4U, 0xbd194dc83d913db4U, 0x3d4924fb3d9451ecU, 0x3d620c6ebd9ab584U,
  0xbd76024c3cd302d1U, 0xbd9c265fbdbdefd3U, 0x3d522c02bda1dddbU, 0x3d2d36ccbd954b75U,
  0xbc7eed77bdb9de8aU, 0xbc83529a3cdfd280U, 0x3d9a520b3c5f7a77U, 0x3cad6a903d8ed1cdU,
  0xbd69f253bcf54934U, 0xbd9e0ab3bcdf5fe3U, 0xbdb524f4bd4cdf6fU, 0xbd817700bd33c525U,
  0xbd4e24c0bd9867d3U, 0x3b8d6e0b3d5f5de2U, 0xbb89f2b63d71b29aU, 0x3cac69303d38bb80U,
  0xbdc28bb13d918115U, 0xbccd84dbbd2caf37U, 0x3d1159a6bbfabafaU, 0xbd93e4013d9331f9U,
  0x3d853d8ebd9f214aU, 0x3d07d1183b82a9b0U, 0x3ccec64cbdb7f3c5U, 0xbcc3b474bd42a4b2U,
  0xbd7a0320bc7573f7U, 0xbce5d2033da4529cU, 0xbd84fcf4bd1c0c05U, 0xbdb6eba3bcab9115U,
  0x3d88b8603d1ff5b6U, 0xbbfe918e3d961c82U, 0x3d4a7fc93c8dd9f2U, 0xbb9376c1bd6261d4U,
  0x3d9074e8bd6b335aU, 0xbcef017f3bd991f8U, 0x3d7d0eca3d8608beU, 0x3ca790b5bd02097cU,
  0xbda79ce63d87a695U, 0xbdc41d5a3da37209U, 0xbdad431c3d74931eU, 0x3d62cc58bc490831U,
  0x3d5bb81c3bd266ccU, 0xbc7767d2bd91158fU, 0xbce2b8dfbd78cbdfU, 0xbd24f357bdaa86b7U,
  0xbd589e3abd954fe1U, 0x3d450093bd8492c2U, 0xbd3baebb3d7efeebU, 0x3d6cde4b3a6557bfU,
  0x3d9dc124bd645026U, 0xbc95e3b63cd3ab9eU, 0x3d36c35fbd8ac38fU, 0xbdabb43e3d068878U,
  0x3d870e76bd9f5fbdU, 0xbcc1bc38bcf2e618U, 0xbdadb2e93d8e98baU, 0xbcfd2d92bc7f5e78U,
  0x3d6e55e4bd501db2U, 0x3d9a258abdb9ea9dU, 0xbdb0f3133d5b9075U, 0xbd6899b7bd768b63U,
  0xbd6b67a7bab721d4U, 0x3d79927c3cfd1eebU, 0xbc7dded2bbea5e7bU, 0xbd7694d93be2cb48U,
  0x3d6ce9d63cf7ababU, 0x3d349859bd60ce64U, 0x3b0375ac3c8e98f3U, 0x3c05ad5abdaca435U,
  0x3d772f3f3ce01579U, 0xbc9b8899bd8d7dddU, 0xbd978f1c3d3a9203U, 0xbcf598123cbc9951U,
  0x3a9ff6b5bbc13e30U, 0x3d40b081bb236fa4U, 0xbd3647c2bd965c8dU, 0x3d6d367abc0effa5U,
  0xbdbca894bd9a5ae4U, 0xbd3f9c2e3d6f773cU, 0x3d4ebab8bdb07767U, 0xbc7cff23bd497686U,
  0xbd75eaeb3d7adf8aU, 0x3d3cd0ae3c71f6fcU, 0x3d6e42febc130b50U, 0xbc4af5ea3d9a735dU,
  0x3da769663d95d439U, 0xbc634bf33b61fddeU, 0x3b72bd23bd7f4ae4U, 0xbce8cd5fbd8e77e8U,
  0xbdaf32283d63058cU, 0xbd7199fbbd66d184U, 0x3d040ed7bdaa1225U, 0xbc9724dbbd768d1eU,
  0x3ca3d8653d07818cU, 0xbc77cd3abd3b85c5U, 0x3d392fb9bc109637U, 0xbdb31c473cab09cfU,
  0x3da42189bc199d7eU, 0xbbbcac88bd695462U, 0x3d8bdf6cbd5005f1U, 0xbd899311bda91b3fU,
  0x3d75e3813d3036f9U, 0xbd68bef2bc21d7d2U, 0xbcb2fe20bd90c7f3U, 0xbcfd11573cd4714fU,
  0xbd4dc2903b653d8eU, 0xbd357628bcdde83aU, 0x3d8e345dbda5a411U, 0xbd8157603d6f49c2U,
  0x3cc107a9bc569d39U, 0x3d0ee7a23cd7d376U, 0x3d298e76bda40140U, 0x3d1f86a1bcabbdcaU,
  0xbaffd3143ba86e66U, 0xbbcf42193d0e1160U, 0xbd1367793d9211a4U, 0x3d05a14dbd9d4e76U,
  0xbd45b4933d94b023U, 0xbd7d28b0bd269263U, 0x3cb28d863d6458e4U, 0xbd3c44b03d0292a2U,
  0x3cbbe6513c93cdbaU, 0x3cacae173d7c99feU, 0x3d96ceda3ce08a05U, 0xbd2e972dbd60c497U,
  0xbca4e56cbbdeee0cU, 0xbcf26d80bd0ab96fU, 0x3d03bf1ebd23c7e0U, 0xbccbbdfd3d70b4f5U,
  0xba954e803cf7e6b5U, 0xbc2404773d312a77U, 0x3ca333623da42025U, 0x3d19662a3bbb1277U,
  0x3d8214d4bab43a40U, 0x3d52996abbe9df1fU, 0x3d1f9faabd0355d3U, 0xbd3ac28d3bc94d1cU,
  0xbc111d4c3d9f6125U, 0xbced139fbd840819U, 0x3c9029643ca17722U, 0x3c948e89bc81d3d2U,
  0xbcf376c3bdab306dU, 0xbcce54b6bd796c39U, 0xbdad4dffbdaac60aU, 0xbcd5a299bd60f269U,
  0x3c355422bd9f25ccU, 0x3d91dc393d39ed69U, 0xbd899e8ebcd30657U, 0xbd114815bd0b4f20U,
  0xbd6fb5303d8d8613U, 0x3d92e2a9bd4cd3b2U, 0xbce623563d0c3330U, 0xbbf1995fba8a36a6U,
  0xbd9f19f63d32a35eU, 0xbd164b613d2d6cbbU, 0x3cd580203c26ed23U, 0xbda8e0bb3d185b5bU,
  0x3d8d2093bd8ba102U, 0x3d72189bbccf1920U, 0xbcff693fbc75df82U, 0x3d9c9f5a3ce062d5U,
  0x3a21da583d0d862fU, 0x3cc391b83ca536a3U, 0x3da552dbbd39769dU, 0xbda28ddd3d53f43cU,
  0xbd37bde03d2c260cU, 0xbd25c1b9bdab9940U, 0x3c57c3aa3d63a65dU, 0xbcba0ac03d9648d5U,
  0xbca6e4c4bd3b953cU, 0x3bea4d44bdb54243U, 0xbc9e788cbd270edeU, 0xbd7f695c3d5a0796U,
  0x3d1776a2bd58adbbU, 0xbcabad58bba4cf7bU, 0xbd08f9a43cf98ec0U, 0x3d44d233bd5f5aaaU,
  0xbd89b48339a95448U, 0xbd7dae103be70cd6U, 0xbd820969bcb09e18U, 0xbd0bd288bdaf77dfU,
  0xbda81427bc0ac2a5U, 0xbda72e5dbc3e96b8U, 0xbcf5d3e0bc181f1aU, 0xbdb492c63d6563a1U,
  0x3be43455bd2e1398U, 0xbd221ca9bb564240U, 0xbd6a7f1c3ca2de79U, 0xbd3fbae2bd5ef90aU,
  0xbcaeeb163bf5747aU, 0xbc1b85e43d2df7a9U, 0xbd7df8ee3d32ed44U, 0xbd87176c3d4a5cb3U,
  0xbd41650c3d905356U, 0x3cb27de8bc6f6d72U, 0xbb1ae9a23c1a2cc9U, 0x3d17d8fd3b9bac61U,
  0x3d648e463da35e0fU, 0x3cb5cddbbd4c635fU, 0xbd932a7fbd3aa6edU, 0x3d8300cfbbf9bb24U,
  0xbdadd8633d02134eU, 0xbd93517c3d88f67eU, 0x3d737c703bab0810U, 0x3d70a20c3d9455d9U,
  0x3da41796bca25cdcU, 0x3c52d1e6bcf3b45aU, 0x3c565cf7b9f6f7f0U, 0x3d2e71723da140a9U,
  0x3c7fa454bb21812aU, 0x3d5e7ab5bb83ef60U, 0xbb959234bc9e79ceU, 0xbd985026bd230218U,
  0x3cd14a8bbd3917f0U, 0xbcc6f6c4bc6728d7U, 0x3d84cf323cf05862U, 0xbda0ae52bce21368U,
  0xbda5f6133d48b1b9U, 0x3d5131523d0e66e3U, 0x3d90ca3ebd561da7U, 0x3c5fc0c53d80bfbfU,
  0xbbf146c93da8e5deU, 0x3d5e1d623d12cea1U, 0xbca3e827bd9c4b38U, 0x3d5261a4bda984e0U,
  0x3d6a9b013ca3df63U, 0x3c8cdc713d90fa43U, 0x3d75e1d73c1ff3d1U, 0xbd899058bd09f5cbU,
  0x3d7ac908bd924decU, 0x3d5a60ff3d020e15U, 0x3c8dcbcabc460993U, 0xbc265ae3bcf37eb4U,
  0x3c008cd9bd9d5f96U, 0x3c97b27c3cb6f548U, 0xbcffcea83cc4fb71U, 0x3cadbe3b3cc3854aU,
  0x3d32bbb83d564733U, 0x3d936010bd368c33U, 0xbd7b5993bd8ba938U, 0x3ce9935abda2ea33U,
  0xbd6798403d949ec5U, 0x3cecafc33d2e6b57U, 0x3d5c9405bd468c0eU, 0x3d858ab53cabafd8U,
  0xbd506c133c402600U, 0x3d5c11cebd8d14e1U, 0x3d78b5613c226d09U, 0xbce14f793d146026U,
  0x3d9740d2b9b3a3ccU, 0x3d89d1293d4d2f6cU, 0xbd69f8573d723702U, 0xbd8ba1efbc1870b7U,
  0x3d4b962fbd630255U, 0xbcf45abfbdacb5f4U, 0x3d1a35f5bceb0082U, 0xbce4dd343d1d5125U,
  0x3d90adba3cb8c89dU, 0xbdaa3b9e3c8c0a81U, 0xbd56160cbd488f77U, 0xbd0631f43d2c8ce1U,
  0x3d41b54fbc886896U, 0xbd69c8af3d5e9c2bU, 0xbd87d4eebd143d45U, 0xbda9cf7abda7375aU,
  0xbbc89f6e3d1a50a8U, 0x3c0afd883b05bb8cU, 0x3d11124f3d7acbffU, 0xbd86eaefbc04fe08U,
  0xbdb1579fbd347258U, 0x3b28c93a3d56e588U, 0xbd3f95d0bd1d1574U, 0xbd98556c3d33453cU,
  0xbd88646dbccafa36U, 0x3c090d5cbdb29f4dU, 0x3d3e7e8ebd342008U, 0x3d934a04bd61a56bU,
  0xbd760f2b3d8710a2U, 0x3d5879c93cb17ec6U, 0xbcf100eb3d08227fU, 0x3b964acabc155f7cU,
  0xbc75bb293d4f2545U, 0x3d0dfbc43a77e328U, 0x3d85bda5bd8ccf5dU, 0x3c8b52423d9b981aU,
  0x3ceaa1f0bd2a34a0U, 0x3da17a0b3d57c16bU, 0xbbde31fdbb395421U, 0x3cf900ad3c1cce47U,
  0x3cffc2dd3d794a3cU, 0xbd2ec94f3d47c210U, 0xbc8fe192bd3b735cU, 0x3da0a66d3d9b1025U,
  0xbd13931ebd8e31b7U, 0x3cd4f843bc15d122U, 0xbcb90f1a3d03ee44U, 0xbd8a0d14bd0f6975U,
  0x3d9906ecbc7e2220U, 0xbd9f9fc1bccdec44U, 0x3d5d36523da022a5U, 0x3d270027bd3368d5U,
  0xbd8130abba849cb2U, 0x3d2c496ebc5bd6d8U, 0xbd846acbbd035ec1U, 0xbc3f99ff3a9f2dccU,
  0x3cf8b8873d761a77U, 0x3caf2a3bbc42f546U, 0xbd572a2cbdaa3bb2U, 0xbdb1a8173d9d8aebU,
  0xbd185bf9bd37531eU, 0xbd883441bc6a97cbU, 0x3d5ffeca3d0acbd4U, 0xbaeed5be3cb213c4U,
  0x3d94cc153d7e8d28U, 0xbc3a7f84b9029990U, 0x3cb6aa813bbb6160U, 0xba0e31e03d42f16eU,
  0xbcd8e3ea3c57497fU, 0xbd65de2ebd4a6a81U, 0x3d9d2622bd4b5612U, 0x3da84bf83da751adU,
  0x3c29f59dbd2ddea7U, 0xbd282df73d97759dU, 0xbdb43230bd8e07ecU, 0xbda7056abceb8419U,
  0x3cbc122ebd0252a0U, 0xbda53098bcfc8982U, 0xbd61d73c3d1fa96eU, 0xbda750ca3c93e333U,
  0xbd15f63abdb05915U, 0xbd10f19bbd216e4aU, 0xbc4c78fcbcb6fc30U, 0xbd0fae82bd8349b9U,
  0xbdabda73bcb002f1U, 0xbdae7368bd88d505U, 0xbd469d013b19cb1aU, 0xbda6eece3d8a1fe4U,
  0xbd9b2f723bcf17e4U, 0x3cb04fcf3d5a8b4aU, 0x3d99cc81bd9c0435U, 0xbd3a91c13d0a4a54U,
  0xbd47d30d3d522f48U, 0xbc2a6fbc3d9c6fcbU, 0xbc1a73303d860957U, 0x3c92644bbcab6d9fU,
  0x3ce350613da9fa4dU, 0xbb0fbfc8b94a29c0U, 0x3da183dfbc91d031U, 0x3c87fe833a08e0c4U,
  0xbd843d51bd7f2b04U, 0xbc059bb93d2d1860U, 0x3d0d25b2bd866d4cU, 0x3d91dc44bd2d60a8U,
  0x3da06bffbd2507e2U, 0xbcc5f2acbbab1614U, 0xbd9d8831bc8229e7U, 0x3d207f43bb382623U,
  0xbd4f7c57bd9309d9U, 0x3d08cd09bcd74eaeU, 0x3ce3ca3b3c6c7163U, 0x3cee92a53d0a2892U,
  0x3ab3b18abd876929U, 0xbda542c4bdb255a6U, 0xbd1088993d995436U, 0xbb38b6b5bd610666U,
  0x3c0537413cc01524U, 0xbd45784fbd769e6dU, 0x3ca368643d0f2511U, 0xbd69afd6bd4610d6U,
  0x3d8ed866be097371U, 0x3cf166173d71e221U, 0xbc752a703d7b8471U, 0xbb86317cbdeae090U,
  0x3caf3bbcbd8f1326U, 0x3cc26920bd7fe9bfU, 0x3d34a72ebdbd1082U, 0xbd60b24b3da53387U,
  0xbd29ce7b3d409501U, 0xbd7320c53bef74fbU, 0xbe02f86d3cf90030U, 0x3d969929bd9acf6aU,
  0xbda934cebdfaa576U, 0xbd75070f3d8fe0b0U, 0xbd3d81de3cda363fU, 0x3ceccd7fbce080d5U,
  0xbc1da11cbd71a195U, 0xbb8c01dbbd094c5eU, 0xbd8d36ebbdb27165U, 0x3cbcb1d0bbd943b8U,
  0xbbcc3c73bd07b1ccU, 0xbd581e9f3d28b100U, 0xbdcf57833d26c5ceU, 0xbc528962bad325a1U,
  0xbcb184323c9ddf99U, 0xbde3d3b2bccd8fbbU, 0xbb952c44bc04bbb7U, 0x3d06f78fbce7552aU,
  0xbdcba0783c3f65a2U, 0xbce9efa93d78d03eU, 0x3c61bf0d3d2679b1U, 0xbd90149c3bc2c9c6U,
  0xbd9629243d3ddcdfU, 0xbd9aea913cfdd21fU, 0xbd2aec933d4b77b3U, 0xbb907b073d313e12U,
  0xbbaa9122bc3aee6fU, 0x3c8e44febd21ceefU, 0x3d3cfdb33c9e7c02U, 0x3cf45b82bd8a4079U,
  0xbc854fb2bd1052e8U, 0xbd28f199bc7288e2U, 0xbcdefd0abcd902afU, 0xbd7b8ddcbc52af91U,
  0x3d8093cc3d19f1d1U, 0xbd2a0645bda852f6U, 0xbd8c92e4bc855f03U, 0xbd32b697bd8f3977U,
  0xbd52902dbdbb0c81U, 0x3d7e50313d76d20fU, 0x3d04b6e2bd4b6637U, 0x3c23e9df3cd6a485U,
  0x3d25d9513b3f2cd4U, 0x3dab1bbe3d808c3aU, 0xbd314921bd4c90a9U, 0xbd41a52fbcb7c093U,
  0xbd2b4862bd5e2a3cU, 0x3c3c643b3bebba7aU, 0xbb938341bd1a0a64U, 0xbd970148bd186418U,
  0x3cdf4743bc072796U, 0xbce586a4bd352bc8U, 0x3d029cd9bd6e393cU, 0x3d35006b3cb62b0eU,
  0xbc5925b93d8c409dU, 0x3da0c8023c927b9cU, 0x3d0c378abdc2ddc7U, 0xbd8f7805bd1bda48U,
  0x3d3077063c8307dfU, 0x3da17c82bda05521U, 0x3d38f0663c3758a8U, 0x3d8459debbd5d47fU,
  0xbc347e3fbc6e1be6U, 0xbc6f300b3d7109bdU, 0x3caef613bd672b93U, 0xbd8bd4e3bcd60e12U,
  0xbd63163dbca8aa1dU, 0x3c1b5a52ba316ec3U, 0x3d1de4dabd526fa8U, 0xbd03f6f13d949338U,
  0x3d4c98e7bbb8bd47U, 0x3d5b2748ba591305U, 0x3cce2fa93d2980dbU, 0xbc677a673d68b883U,
  0x3d5113793cb5ca3fU, 0xbd859fb93d0ec7b0U, 0x3c981932bd608901U, 0xbd6b3101bda6e7f0U,
  0xbd897f593c9328b2U, 0x3c713ee93dc62537U, 0xbc19861e3da663bcU, 0x3cbcc319bd6dcea7U,
  0xbd4993b13d907e74U, 0xbc017a30bc37a0b7U, 0x3d6924cd3d8c7a55U, 0x3d544d3a3cf0c146U,
  0x3d0cf19b3cc28211U, 0x3dad546bbca241f1U, 0x3d15c1113d194aafU, 0x3d2c5eeb3d58a6d0U,
  0x3d98b462bae746ccU, 0x389c7eb63d326e5eU, 0x3cd21597bd300cb6U, 0xbd8bfdbf3d1e8b9eU,
  0x3d0b11253c8677c3U, 0x3d3f3ac7bcecee5fU, 0x3d4b75fc3dca5e40U, 0x3daf7315bc2099c4U,
  0xbd1a168fbdac00c0U, 0xbdb9780c3d205ea5U, 0x3d9ced6a3d7d132eU, 0x3db018673ce2a805U,
  0xbda57c033d5a681cU, 0x3d0f525b3d849761U, 0x3d8115b13d468e01U, 0xbca00f1a3c9607e6U,
  0x3dc27a9e3d8a8271U, 0xbca80b94bd7a26cbU, 0xbd83bc02bcfb4a47U, 0x3d89ca12bd9fd83aU,
  0x3da30072bc88d520U, 0xbd58dab33d50b1bbU, 0x3d45c5e0bd925561U, 0xbd860beb3cd2beaaU,
  0x3c034a533dab07a4U, 0x3c3836ba3a3c4e70U, 0xbd26d3c9bd0367b5U, 0x3d0c7f6c3d6e6d7aU,
  0x3cb4fa85bc4aa328U, 0x3cf961f63c21e62cU, 0xbb623cf3bd345067U, 0x3ca76662bdb56501U,
  0xbda06cb9bc3e6211U, 0xbdb44ba2bced90c6U, 0x3d5b2d6a3d51bd4bU, 0xbca4a22e3d150765U,
  0x3c5797cabc0725c3U, 0x3de215e33c871666U, 0xbd69e58bbd9379b9U, 0x3d7f363d3c33e681U,
  0xbbc10f33bdb97969U, 0x3d30be44bd64782eU, 0x3d72ad213de8ee0eU, 0x3dc5a844bd615019U,
  0xbd14267c3c3497fdU, 0x3d0a1d9bbd9bc8e8U, 0x3d4a8965bdab188fU, 0xbc1a8e0abd455537U,
  0xbced379fbd00ae8fU, 0xbdbf38d7bd050855U, 0x3d614598bc5e9dd1U, 0x3d9ec64cbdbeb6c5U,
  0x3bab0cd83a4c2c07U, 0x3cd1d87c3d7a0bfaU, 0xbbb3eb5fbd39dcd7U, 0x3c36647b3c4cd5f8U,
  0xbd3488cbbca7bc8dU, 0x3cb13f87bda8b14dU, 0x3b98ccb73d0ffbe9U, 0xbd9c6c833caee22aU,
  0xbd9bb6f73d956869U, 0x3b4d3ddb3cf266c8U, 0x3c1f410b3d8aa1d7U, 0xbd99b04b3d58f525U,
  0x3d2e8c4d3d7b028bU, 0x3d0b14383d9a57dbU, 0x3d7fad6e3d94c617U, 0x3d253b25bd0c0d62U,
  0x3cb1fc86bd4d6aa0U, 0x3da22ca43d898611U, 0xbd973f64bc7ff209U, 0x3d8cecc6bcc1e899U,
  0xbc971a90bb9af1c5U, 0x3d67433abd5fa085U, 0x3c94f2febcf18328U, 0xbd985415bdaa0985U,
  0x3d19556b3d68b40cU, 0xbd65a8f5bd1e6265U, 0xbc9c899abd69d0edU, 0xbb66b848bd5399a8U,
  0xbdb30a8f3d7bf540U, 0x3cdc375a3d73d4e2U, 0xbd868ef13d52d015U, 0xbb70ac413d4f66adU,
  0xbbfd286cbd940c67U, 0xbc96c99d3d4ce96eU, 0x3d41a803bc906508U, 0x3d728171bd18a05fU,
  0xbd943763bcae3414U, 0xbd8a77113d8af563U, 0x3d3b009bbd0cde2eU, 0x3cec2d60bd59ec6eU,
  0xbda7787d3be59d5eU, 0xbd8b6a59bd691246U, 0xbaf02ee3bb17b392U, 0xb99849f7bccca428U,
  0x3d899128bc6907eaU, 0x3d224eccbd80c4adU, 0x3d2567f7bd282b3fU, 0xbd88b5383d40cd02U,
  0x3d5e7bbcbc6dd76dU, 0xbdbe048fbc8a2e86U, 0xbc35d90c38d1c2d6U, 0x3d3ad8a8bd9d028bU,
  0xbcb6876abd74ed4aU, 0xbcdc3e913d151294U, 0x3aa104463d9162daU, 0x3b7fa0cabcc6f230U,
  0xbd925acd3d22c216U, 0x3ceef60bbd9b0f3bU, 0x3ceae4293b053d9eU, 0x3ae530dababdd60aU,
  0xbda56b15bcf52aafU, 0x3d0faa0bbd7708f6U, 0x3d166ae53d832a85U, 0x3d4b2a9a3d68c607U,
  0xbd953d553d4a23a4U, 0x3cf4168a3cfb42c6U, 0x3d1e2ef0bcd736d8U, 0xbd6708653d187a21U,
  0x3d3fc932bc6722feU, 0xbd816f743c988f97U, 0xbb747b0a3d40ba20U, 0x3d96b52d3d9c1afdU,
  0x3d2339ff3cfbeb94U, 0xbc364a393d78a2afU, 0x3cb4e806bb88ccceU, 0xbdc154403d6a7486U,
  0x3d3cf1f53c817904U, 0x3b6bab193b8f62a8U, 0xb9bcc7a03d735468U, 0xbce248e2bc29f9baU,
  0x3c9bb62b3d0c56baU, 0x3d25521e3d289aa8U, 0xbdba0771bd04c799U, 0xbca8708fbd8d8e17U,
  0xbd5347afba8876f2U, 0x3d925fecbd48e269U, 0x3d7c9818bd890697U, 0xbcbff1b2bdafbf80U,
  0x3d889c9dbdbcb8b1U, 0x3d85a82c3bf7017aU, 0x3b8050fc3d804a50U, 0xbd8ecbd6bd74f3beU,
  0xbc40a129bce2ad46U, 0x3d2fd290bc19d489U, 0xbc67c7ca3d1d19e2U, 0xbdc1ec073cc93cd5U,
  0x3d69bfacba1d3deeU, 0x3d4ae1ffbd19bea6U, 0xbd2cd05abb757812U, 0xbd1367ffbda4f8d0U,
  0xbd0434e43d406406U, 0x3d0d3dcb3d9a5157U, 0x3b2dc04dbb184b71U, 0xbccd9bdf3d96bf13U,
  0xbcde294cbab90bf6U, 0xbd4a7cd9bd8db709U, 0xbd891367bdad0e43U, 0x3ccec4f4bbca1c1bU,
  0xbd71a2853c0315cfU, 0x3d1875a73d9b87f2U, 0xbd4ce65bbc8a61acU, 0x3c0fc281bc08a6faU,
  0x3d9692c4bd912b3fU, 0x3c494364bcae62fdU, 0xbd710989bd4bd391U, 0xbcc3e66fbd4f3c86U,
  0x3d47e031bd375944U, 0xbd5ddb0f3d08c857U, 0x3d884fb2bce38efeU, 0x3d90b2833a062340U,
  0xbdb39c80bd4008b1U, 0xbdc3b4773c23b12bU, 0x3d9701d0bb30938dU, 0xbd403d813d7c57a0U,
  0xbcf967d1bc9595f4U, 0x3cf63dc83d683c40U, 0xbc64cacfbd74783cU, 0xbdada7cd3c9a133cU,
  0xbd7af2f23d494360U, 0xbdbddfd53bf1901dU, 0xbcbf3b32bd41e353U, 0x3d59850a3c870649U,
  0x3d1dfa893d608027U, 0xbc3290783d9a9d15U, 0x3c9ae79bbd4835ebU, 0x3d8552bbbdc0b69aU,
  0xbd6c1222bc33159cU, 0xbd0cecdfbd9a9348U, 0xbd54bf5b3da11931U, 0xbda852ae3d54466cU,
  0x3d65c3e1bcd2c09bU, 0x3d95c6ce3d95a3d9U, 0x3d726d28bb39d73fU, 0x3d9d0a7fba80bd9cU,
  0xbd9a37c6bc179ff6U, 0x3d0c03f839e50710U, 0x3d446c83bc2b3bb5U, 0x3d9628c13b364becU,
  0xbdb75a8d3da45912U, 0xbcb5430ebdb0426eU, 0xbd7d7cc3bbb03a1fU, 0x3d1c3a7b3d9e4a16U,
  0x3cbc2998bd8c78c0U, 0xbd8a44ce3d05b0eeU, 0x3b8eedcbbccc53dcU, 0x3c22cd13bc85d732U,
  0xbd62f19f3d9ea37cU, 0xbd0fb6ddbcff08ebU, 0x3b058773bd44c034U, 0x3bd2a9103cd98661U,
  0x3d67e0173d977305U, 0x3da51f79bcb634f2U, 0xbda29eba3da0d10bU, 0x3d7650f03c65105fU,
  0x3d2b000fbdabe32cU, 0x3d04f7b3bd48d8f2U, 0xbda17a69bd94c8e7U, 0xbd84f0263c84c067U,
  0xbd91c20f3d76cb94U, 0x3d5a4376bd030d32U, 0x3cef4c0abda723f3U, 0xbcfefd46bd0688f6U,
  0xbd9e1f7fbd8b6c16U, 0x3d0c51223cfbef9fU, 0xbca8713bbd1700ffU, 0xbd5af7bc3d1b3978U,
  0xbd1385513d5d1733U, 0xbd3e7a4bbd2b4f8fU, 0x3d1475693d51e1fcU, 0xbcccd241bd22f119U,
  0xbd4cf70d3da4cdeeU, 0x3d984c4b3d025571U, 0xbccdfe803d94c2e1U, 0xbb2b6a32bd9f54eaU,
  0xbd8fbff33c920353U, 0xbc34bfc33d9051b1U, 0xbbfb1cc53b8b21ccU, 0xbd41500c3d21fbfaU,
  0x3d344d423da5559fU, 0x3c912829bd5226bcU, 0x3d5ba7523d3295a4U, 0x3d60f0dfbdb1542dU,
  0xbd542a723cb49349U, 0xbd0a8670bce3be4cU, 0x3cec2930bd488d74U, 0x3b85d99c3d2a2524U,
  0xbcc19323bca32b6bU, 0x3c8ff2ef3d1cb825U, 0xbda64f82bc9d01acU, 0x3cf85a21bd633117U,
  0x3d07a71bbd156dbbU, 0xbca7e99cbd807569U, 0xbd7bf791bd826132U, 0x3d3ace8c3c9b8d06U,
  0xbd95bb973c4b60cfU, 0x3d1ab28e3d0a22c1U, 0xbdacaa72bcdd128bU, 0x3cc80db03cdcdac2U,
  0xbb1a040c3ce48a94U, 0x3d2e97bbbd3cddbdU, 0xbc861a31bd3033dfU, 0x3d6a33673d62c12aU,
  0xbda375943c861037U, 0xbd212364bc16b3c0U, 0xbcbdd04fbc81ad01U, 0xbcccb853bd1ff758U,
  0x3b9f907ebda8729bU, 0x3cbf399d3c87c3d0U, 0xbdaed351bc23b4b4U, 0xbc9e4971bdbadb3dU,
  0xbcd96b94bd582e30U, 0x3cdf463dbd45d383U, 0x3d63b75b3c210ecfU, 0xbd8340873d6eba98U,
  0xbd3d686a3d5fdf33U, 0x3d87cec13cf01243U, 0x3cda288e3be2c5b2U, 0xbc71d82abc2ffdb4U,
  0x3b2b4618bda6a6deU, 0xbc563e773d9b0d7dU, 0x3be0e4d1bd6c20d7U, 0x3cca19bf3d52edf5U,
  0xbd0f0065bcd9f4f5U, 0xbc20ebf9bd8ccf15U, 0xbdad18f53d457af8U, 0xbd442928bd9ac7f2U,
  0xbd38522a3ca377b3U, 0xbd054d7f3d28a9beU, 0x3d61ae99bab18aa0U, 0xbd157bbf3d3b2e27U,
  0x3b7d08fa3abc6944U, 0x3ae7a737bc88116bU, 0x3c7bdf193d49f700U, 0x3d07dc923d303a89U,
  0x3d8816303c5b8fd6U, 0xbabbf8c9bc9033a0U, 0xbd2a48b4bd1b8245U, 0x3d2da43d3da778e4U,
  0x3d8c2bb33c9c34e8U, 0xbdb170d23d526b01U, 0xbc57604abc954abdU, 0xbd2ca5293cf5152eU,
  0xbcca6278bd15832bU, 0x3d980b103bc7095bU, 0x3d8d1a773d88b06dU, 0xbc6529773cf085f4U,
  0xbd95bf9e3c654892U, 0xbcdf8bf2bda8db2dU, 0x3da67e2f3d69ed8eU, 0xbd1f8edb3d886a2bU,
  0x3b8f07ac3d111680U, 0xbc86f3fcbc7731b6U, 0x3d48cdd8bd7c9c87U, 0x3d5334323d50bd2fU,
  0xbda3a86f3d900d8cU, 0xbd05f7183d856c3dU, 0x3d29bc413bf10308U, 0xbc751d3fbd0edec5U,
  0x3d1301f63d0e04b8U, 0x3d0f261ebceb3275U, 0xbce8ddc5bd234a96U, 0xbd920d59bd244cadU,
  0xbd8b226dbd960d1cU, 0xbcba074ebd856955U, 0xbca8770abcccda26U, 0x3da089f3bd94f82fU,
  0x3c2f3cbb3cc022aeU, 0xbcd0ab4d3da7f179U, 0xbd8ca274bce5d700U, 0xbc935b8fba3a9654U,
  0x3d1478e63d222320U, 0x3cea3d28bcde091aU, 0xbda040b2bd8e03acU, 0xbd075496bd2baf33U,
  0x3c6dc240bbbd42d0U, 0xbdaeff893da91c14U, 0xbd1a3451bd2c630dU, 0xbcf0f20e3ce10528U,
  0x3d9e09c83d26b9c4U, 0xbcdeb622b990cf00U, 0xbd87a5b43d1883a0U, 0xbba97390bcae3da4U,
  0x3c821eb83da0bb76U, 0xbb722a403d853980U, 0x3b57c580bd8b02e9U, 0x3d570550bc9e36acU,
  0x3d0b701ebd31b205U, 0xbd52c975bd07651bU, 0xbc8eab04bd5484feU, 0xbca1f77cbcf28a9aU,
  0x3d5599e03d2e79b0U, 0xbd91aaba3d165298U, 0x3898e4003ba700e0U, 0xbd51c62bbc8119b0U,
  0x3d995ad8bda478e0U, 0xbd94e0883cfddfa8U, 0xbd9abb703d1c5d62U, 0x3d30fe14bd8cdddaU,
  0x3d867b46bda13788U, 0x3d8d6aa8bd0e6772U, 0x3bcfb6d03d230cd4U, 0xbdad15483d65ce30U,
  0x3d3435303d7f7e90U, 0xbcdf1700bd7022b4U, 0x3d660d48bd7a53b6U, 0xbc641e58bda049ebU,
  0xbda3800c3c0bf4b0U, 0xbd061d83bd18dc12U, 0x3d6e9f603d95ac7cU, 0xbcf870623d1899b0U,
  0xbda437333d62f9c8U, 0x3b0002003c3ba858U, 0xbc0c93703cb12974U, 0xbd9387d83d83aebcU,
  0x3cb194303a6a6a80U, 0xbd75fa65bd4de50eU, 0xbd7a17e4bd57fa86U, 0xb9fab1003d5232c0U,
  0xbd9fc19e3c980208U, 0x3d018b143d05d3d6U, 0xbd9cf90abd9b61d8U, 0xbd4617f53c986e8cU,
  0xbd9e519cbc73d2f0U, 0x3afdcb403d30b230U, 0xbd93f62a3b99ede0U, 0xbc23d9803d2ec504U,
  0x3c8127dc3d950f54U, 0xbbda9f103d61d474U, 0xbd9e420ebda901a7U, 0x3c338b983d59b24cU,
  0xbd0cf75d3d8f1590U, 0xbc2674983d3de90cU, 0x3b9c68b0bb600ce0U, 0x3cb45ac43d1e132cU,
  0x3d9b4ce0bd3a4b8bU, 0x3caca8dc3d3a9068U, 0xbd6279c8bd312b28U, 0x3cbfd0343d1f1f94U,
  0x3d5233ecbd9d57f8U, 0x3d097d183d020c92U, 0xbd40c8c0bd77337cU, 0x3d84e2c43c835940U,
  0xbd1ec08f3d491bbcU, 0x3c08b0183d9209aeU, 0xbcd1e34a3d57c2fcU, 0xbc05e850bdacd607U,
  0xbd4e5f4bbd99cc04U, 0xbcb5a870bd970d44U, 0x3cd714dc3d7f42ccU, 0xbd4e1ab43d2c8868U,
  0x3d75ebf83d8348deU, 0x3d52f9d8bd72afc6U, 0xbd815e003d24939cU, 0xbda98a98bd04dc48U,
  0x3c7b2fb03da986d0U, 0x3ab09ec0bd9203ddU, 0x3cf1a064bd9707eeU, 0xbd80094cbd5fca2dU,
  0xbceb13ee3da5bf82U, 0xbd121ea5bd7fa4deU, 0xbceb09c2bd1bf1a1U, 0xbcfbd16a3d1e64bcU,
  0xbda4a3cf3d1568d0U, 0x3c8e11a43abffc00U, 0xbd61da373d861d54U, 0x3c5278783d5c192cU,
  0x3c9a6148bd1c1befU, 0x39c1fd003c1752e0U, 0xbcd3fd223d3cd6e8U, 0x3cab73143da59622U,
  0xbd663ca03caf7140U, 0x3cf42d28bd83a829U, 0xbd77d3f03d49f044U, 0xbba619203cecaf4cU,
  0x3d37f35c3c7b15a0U, 0xbc852ab4bd014073U, 0x3d6802d43d7d2f08U, 0xbd995e0abcbb9facU,
  0xbb37c700bd21bf51U, 0x3c5e11a03da28612U, 0xbd845972bbea0480U, 0x3ca614f43da0055aU,
  0x3d95781c3c1c3608U, 0xbb9e0b20bd9fb5c9U, 0xbda1e03fbd2c8000U, 0x3c0140f0bc83eaf8U,
  0x3d1de9f03d58e320U, 0xbc9d09343d1fdb58U, 0x3d91da5abc73f250U, 0xbbfd2d50bd97900cU,
  0xbb8dad203c074bd0U, 0xbc8d0e943c866818U, 0x3d738d0cbc1d5820U, 0xbd425edabd6bc3ccU,
  0xbce37dd43d405470U, 0x3d6d3014bcdfbdd6U, 0xbd6389103d97d036U, 0xbcaa9a88bdadb411U,
  0xbc6195b0bd1dca43U, 0xbd1fb6d53cbb8a3cU, 0xbd1e47a43d279370U, 0x3c85aed0bd185b5cU,
  0x3be0b5f03d8d5966U, 0xbd3239f7bd35573fU, 0x3da49286bd57aff0U, 0x3d550a6c3c8fe4d4U,
  0xbc62ccd8bd353818U, 0xbd3135ae3d7b85c8U, 0xbc856b44bcdfe116U, 0xbda30ff6bd7c318bU,
  0x3d1e11f8bd441d4aU, 0x3c81c2a83d2f1254U, 0xbd18dbb43d61fcf8U, 0x3d711d34bd12dbdfU,
  0xbcfee504bd1f26edU, 0xbda4b75e3c1d35feU, 0xbdacc0babdb3014aU, 0x3d6b25b93d99b321U,
  0xbcae1a063cf2c200U, 0xbd23434d3cf2fb4eU, 0xbd8ba3a23cf74b20U, 0xbdb11e843c040224U,
  0x3d707dc4bd21f730U, 0x3d070c543d86dbc9U, 0xbdac77f43d709674U, 0xbc59902abd7964d4U,
  0xbc98ff6dbd45d63cU, 0xbdae29413d85af81U, 0xbd0054683d3b130fU, 0xbca76f123bd48fe4U,
  0x3d81bacdbca47aaeU, 0x3d65eda53c588cc5U, 0x3d0a65183d1965ceU, 0x3da0af46bcff444eU,
  0xbd53f9d8bd7a060dU, 0xbc85376dbd930bf7U, 0xbb3c219e3b6e0d04U, 0xbc2c6f86bd74c23bU,
  0x3d932e633cac8473U, 0xbbefe54abc341e9eU, 0xbd32b9ee3d603f66U, 0xbda1c318bd9c2ce1U,
  0xbd8c355d3b079f38U, 0x3cc44cf4bd8c65c1U, 0x3c70050ebd6cdcf3U, 0xbcf31aabbd2363a0U,
  0x3d1a39d13d992d4aU, 0xbd4de6343da72332U, 0xbd90d333bc215aa3U, 0xbd1d56a0bd1a8214U,
  0x3d55ae293d1709e6U, 0xbd3a7cbf3baa28acU, 0x3d9de4b4bc59c0caU, 0x3c58e128bc2f4c15U,
  0x3cd8a40cbd14c518U, 0x3d27cefa3d67a1b8U, 0xbdbe71dbbd2c8975U, 0xbd4e7a36bb8e933fU,
  0x3d2c38c3bda7cd4eU, 0xbd9f99193c736d54U, 0x3d87257f3d521d24U, 0xbc33f7ce3c950876U,
  0xbc8cde92bd190833U, 0xbc8a98883c9680e7U, 0xbcf454683d0dfb50U, 0xbd741adf3d9841a3U,
  0x3c1a061bbd986269U, 0xbd531dbb3cc4a65eU, 0xbd7ff1ff3d78f511U, 0xbba5aa8c3d601b20U,
  0xbd74db9b3d5ebeaeU, 0xbd4715203c242fceU, 0x3d8cf9093b5308a8U, 0xbca62ada3d8fa542U,
  0xbda49b70b9281c20U, 0xbda6a93f3d3b7f7eU, 0xbd0d94ac3d0ed944U, 0x3bf6b6efbd204ee9U,
  0x3c9918a4bda72356U, 0xbc038acabc82f809U, 0xbb6133063cdce86cU, 0xbb473a8abb99c4a6U,
  0x3ce36cd4bd062648U, 0xbd73e47e3da7251eU, 0x3d7c94ffbd9c6cc4U, 0x3c55a684bdbb4b15U,
  0x3d114dd23da157d1U, 0xbc94d58a3d49c19cU, 0x3d7cb69bbd4773eaU, 0xbd17141ebc2d53eaU,
  0xbda0bd4ebd041795U, 0xbd6c3df5bd202d3cU, 0x3d867bd3bd0fe3feU, 0xbd8663223d72d7cfU,
  0x3c03a52abdafeaf0U, 0xbd1a0f60bcb286a8U, 0x3c04b68d3c79d7f0U, 0xbd7ffdb2bd07826aU,
  0xbd880af3bd9681ccU, 0x3d5e4539bd5563adU, 0x3d456cb63d158dedU, 0xbd9f97773da0bf48U,
  0x3da2ac0cbd004b2eU, 0xbb7524983d66f0e3U, 0x3cecf8ecbd854e04U, 0xbcae080f3d4fc0c7U,
  0xbcb632b23d7fe4aaU, 0x3cd106ebbd8b5f68U, 0xbc45a0c2bcca338fU, 0x3c767d8f3d076292U,
  0xbd03dc183cd799c9U, 0x3d6d758f3d02737cU, 0xbcf438393b31afbaU, 0xbd8c033c3d66fa06U,
  0xbd978148bd47deabU, 0x3ce08c94bc8f7ff9U, 0xbd3286a63d973a88U, 0xbd990c043d8bf340U,
  0x3c1c6fcfbd545116U, 0x3d2da6e03d5090b0U, 0x3ceb4da2bcdbbaa2U, 0xbd90748cbdb9f643U,
  0xbd900c02bcc87032U, 0x3d69dbc83d66f521U, 0xbd84c611bd852706U, 0x3c916a093cb93e46U,
  0xbc34779cbdaa4b5cU, 0x3d1ab95abc03a27aU, 0xbdb81be1bce45daaU, 0xbcf67cea3d9f68f9U,
  0xbcec1870bd32eb7fU, 0xbd52c340bb3f5452U, 0xbd7d22fe3cfb0468U, 0xbd566db6bd99d5baU,
  0xbd961cf8bd759ebbU, 0xbd713971bd8cc23cU, 0xbd8b14453d98c426U, 0xbda5bb5a3d997c36U,
  0x3d936bc23da49161U, 0x3cbdca303d7192a8U, 0x3c86b6393c88c09fU, 0xbd2a1a803d42e412U,
  0xbd061a44bd7782aeU, 0xbd5e6e163d97e2f3U, 0x3cbeb4bcbd96ffd2U, 0xbd89aaa4bd2d7da4U,
  0xbdb3bfadbd7c644aU, 0xbd33a2b83d8c9b54U, 0x3d9be2c53d8f1814U, 0xbd8f909e3d9db940U,
  0xbcde7a6c3ccbd5a8U, 0xbd688aa53d6ebb46U, 0xbcf968583d4eda3dU, 0xbd8cb5663c8541daU,
  0x3d8a28c93d9db5bdU, 0xbd82af28bd9ad8beU, 0xbd2dc36a3baa82f8U, 0xbd17063dbc24ef41U,
  0x3c0ec6503ce58cdfU, 0xbc5934a0bd918d46U, 0xbd05ef933d2dfe83U, 0xbda66919b9bc02e0U,
  0x3c6a672a3d7bc206U, 0xbd780f1bbd039f3dU, 0xbcb2985dbd9dfba3U, 0x3ce761683d0f37e8U,
  0xbd95e2863d620108U, 0x3c633fe0bd545688U, 0xbd14a44bbd9f57a4U, 0xbd6b4d633cb9273fU,
  0x3c4e149e3d86ecb6U, 0x3d331478bd5932ceU, 0xbcf09ba2bd2ce6aaU, 0xbb2a774e3ce16435U,
  0x3d8a3a3ebd02c84fU, 0x3d8506e63ae76394U, 0xbd4983593c7ffe93U, 0x3c974b293cd52865U,
  0xbd91d4ccbd4aebaeU, 0x3d8fa6453cf4170aU, 0x3d1babfebd87b2acU, 0xbd6d07f63ccd37cbU,
  0x3d90461c3c88ca28U, 0x3d18ef13bdbb04daU, 0xbd2f0a6a3d03dd94U, 0xbc954ca4bd816f6aU,
  0xbd9d9bbdbd6aaa42U, 0xbd69d7e6ba97dec8U, 0xbd2ef4e5bd7af683U, 0xbd920cbe3d062a5aU,
  0xbda57af4bd950d60U, 0xbd5ab44fbb04dbfdU, 0x3da7df363cec622aU, 0x3aff804439cb3c10U,
  0x3c0eb10d3c7eb675U, 0x3d8f794c3d854130U, 0x3d9def933d2b749cU, 0x3d68e2fc3d73a9d7U,
  0xbd8e40cf3b86c710U, 0xbd86e5d6bce7f9d7U, 0x3cc14ecc3d80ad40U, 0xbdb75cb83d91d58cU,
  0xbd80cc393d9a0fc3U, 0xbd085f193a5b1f98U, 0xbcead8753d1d2911U, 0xbc42f2b13d5e2ac8U,
  0x3d8f82eebd6e73dfU, 0xbdb587acbdabc957U, 0xbd4126b83cb7d6ebU, 0x3d9d6617bdabe6afU,
  0xbc4ba77a3da37f94U, 0x3c8f24f4bd626478U, 0x3d8ed4e13da0bba1U, 0xbd92f8d03d9bd716U,
  0xbd7c3c13bd4301b8U, 0xbd6cd7e7bc9eb937U, 0xbc56f2e83d971ac6U, 0xbdb7083ebd917b80U,
  0xbd4ed469bca558b4U, 0x3d488036bc0107f8U, 0x3d69a225bd18baf8U, 0x3d645118bd48514dU,
  0x3d84824d3d923008U, 0x3d46e5e3bd709aa8U, 0x3cf9f5f2bd997573U, 0x3abe9adabc438796U,
  0xbd51e6f8bcd08aaeU, 0x3c1c6346bceb280bU, 0xbd0aa8033c9801afU, 0xbd87f3113d8e2675U,
  0xbdb0c3a73d53f2b9U, 0xbd83a3843d8065f6U, 0xbda09b1bbb3f50e4U, 0xbd89c9ffbd829d2cU,
  0xbcc14184bd9f3c83U, 0x3d55ccbebdaa103aU, 0x3d4176b73c8babf2U, 0xbc434f823d902e8fU,
  0x3cc05a38bdbca420U, 0x3cca5543bcb74e7bU, 0xbcd90368bdb2ab81U, 0x3d24f08d3d0e0a15U,
  0xbcfdb7abbd1f24d0U, 0x3d0d9535bd9a4508U, 0xbbdd8fcebd48df34U, 0x3d9cb571bd8f4566U,
  0xbdacd1dcbc098046U, 0x3d6b05b6bd9921a7U, 0xbda1d3983d92df8cU, 0x3da02b773d4d812dU,
  0x3d0a88d9bd04831bU, 0x3d294490bda6c8baU, 0x3cab7b463cf90050U, 0xbd73ca4f3d46be35U,
  0xbd9253e8bd66f86aU, 0x3c3efbc0bd9384ebU, 0xbd2a9d2abd104040U, 0xbd01b9ad3c71ab25U,
  0x3cdf67a83cae6f4dU, 0x3d9ebaa5bd4a374bU, 0xbdb3d186bd4c4951U, 0x3d9cd537bb820ab5U,
  0xbd546f863ca34805U, 0xbbc91a30bdaf9e37U, 0xbd1d6d05bdad6dbdU, 0x3d641c6fbd750a0aU,
  0xbda331313d68487cU, 0xbc3e019d3d4f4676U, 0x3ce2a17c3d39e1acU, 0x3c2e45703ac9d672U,
  0x3d95f2633d0fc27aU, 0x3d3f48193abd2dc8U, 0xbb5dc0e23d8639acU, 0xbdaf5821bc807d90U,
  0x3d73fa0cbcfd482eU, 0xbd9385cabd97d2eeU, 0xbd9661f3bd378715U, 0x3d6381c1bd957ae1U,
  0xbd3a6fd23d9fdcd1U, 0x3d3614953c508b26U, 0x3c400b9abbffcd22U, 0xbd1bddaa3d21153dU,
  0xbd132c05bba70b76U, 0x3d885aeb3d8de898U, 0x3cd4410cbc405bd3U, 0x3cbfa971bd3a3a03U,
  0xbda5f1d43d5602d3U, 0xbd5a75703d6e2287U, 0xbd4fbe23bd00371bU, 0xbce2127b3d816d1bU,
  0xbd577e2f3d5b7865U, 0x3d2c35ae3d6417b1U, 0x3d7a74b53cad591aU, 0x3cf2304cbdb17d95U,
  0x3d975a96bc81cf58U, 0xbc5cdc963d3eff4eU, 0xbd18a17bbd85a347U, 0x3d8b83a7bd241f4eU,
  0x3c833c743bdc3419U, 0xbd943932bd4efef6U, 0xbd3a9d9e3d09a631U, 0xbd38e3513be191cfU,
  0xbcdf0e04bce7236dU, 0xbd85fd693d31b682U, 0xbcc9c9aa3d261396U, 0x3d99d6863d13c6a5U,
  0x3cf216503d702d37U, 0x3ce0215abd494850U, 0xbd1eb2d8bd0c0c90U, 0xbd7a182abd033a8dU,
  0x3cfcfa4ebdbb2a00U, 0x3d7d23503cfbf48fU, 0x3c04af793c799989U, 0x3d7f52ebbd1e0ebaU,
  0xbc60af093c95171dU, 0x3d5747683d40072eU, 0xbdba86533d562532U, 0x3c67a5ae3cb2e807U,
  0x3d9450d4bd34edacU, 0x3d04f5babda4c068U, 0xb884bb803d252475U, 0xbbda4f5ebd085c8dU,
  0xbd915118bd78411eU, 0xbcaeb6583c1a6b9cU, 0xbdb4ed37bd9afdafU, 0x3d43d3cbbcf225b0U,
  0xbd322f64bc4b3d24U, 0xbdb1ba423ca068faU, 0xbd622ec1bd94add8U, 0x3c99cd7a3be31344U,
  0x3d975a963c3aac43U, 0xbc64f2e6bd199ceeU, 0xbb1ddb043ceb2f56U, 0x3c66467bbd029bb9U,
  0x3cf02be9bc765714U, 0xbd809d013c3b1c23U, 0xbc2831c1bca51fceU, 0x3d749ccbbdb3fe62U,
  0xbdaf5b70bcb91674U, 0xbd9add9a3c1a9bb6U, 0x3d001ed0bd70d0fbU, 0xbd46a793bd5bee4aU,
  0xbda17b4a3d4310fcU, 0x3d6fda41bd5cae0fU, 0x3d9009b9bd87afa1U, 0x3ca7c32c39657d00U,
  0xbd53e127bb1e54ecU, 0x3d790847bdc13254U, 0x3d5011e33d015bfcU, 0xbc3a13663d980322U,
  0x3d77c06fbb2c7dc8U, 0xbd926308bd6285eeU, 0xbd0400c03d832995U, 0x3bc44946bda6f896U,
  0x3d57e28a3d774b1eU, 0x3d6ba2e0bcf858c7U, 0xbc1a59393c5313c4U, 0x3cf69eb43d7c8466U,
  0xbd3c15a9bda96661U, 0xbc214d83bd5f3cb2U, 0xbcda6ef8bceb2ffeU, 0xbd18d1443d1c119cU,
  0xbdb58b313d68a164U, 0xbd32cbce3bcafa54U, 0x3ba4b5d63d52f69cU, 0x3cdf9f93bbbb7b8cU,
  0x3d799760bcf7a3d0U, 0xbd0d74e7bdc169d4U, 0xbd5a0732bcadeb8cU, 0x3d6546753d8e348cU,
  0x3d41e4623bddf268U, 0xbd8bbef5bd141f8fU, 0x3d1441d53d7f5d04U, 0x3d3bebbabd9d4779U,
  0xbd0043eebb466420U, 0x3d7a1a00ba8121c0U, 0xbc8870373c644842U, 0xbd9041d3bd12fe56U,
  0xbd30e14d3d0108e0U, 0x3d3606cfbd8ed578U, 0x3d5994223d7447a1U, 0x3c0d27b5bc5f4818U,
  0x3d0a50d7bda533d4U, 0xbd928e113b8ac042U, 0x3d2d07b03d516931U, 0xbda2a3e4bd8f2000U,
  0xbd1201123ad02c20U, 0xbc9de8713d68b2e0U, 0xbd9eea103d9653d8U, 0xbd65c355bd5a4f28U,
  0xbd9d16cbbbdbbde6U, 0x3d9d48c23d109bb9U, 0x3d7ddbc43d2fc4e8U, 0x3d0ccc8cbbb09028U,
  0x3d985fa53d4f7323U, 0xbd1ee9d53d45c85dU, 0xbce97b563d287302U, 0xbd01c1f0bd302db0U,
  0xbda0cfc73d1491caU, 0x3d9c1239bdc5067eU, 0xbd38bb3a3d06b956U, 0xbd9ecb66bca8a4d6U,
  0xbd0f6ce33bb15dcaU, 0x3cb3b3ab3d4f69dbU, 0xbda4c3b43d83a5d8U, 0x3ceba7863d951d26U,
  0x3d8b6d813d271082U, 0xbd6e33debd485300U, 0x3cbdeb18bd944b93U, 0xbbc43954bbbfd742U,
  0xbb806122bd31de13U, 0xbda346973d7d3b3bU, 0xbdba3ef43c842192U, 0x3d9141353d954ad2U,
  0xbc9633ddbca41a13U, 0xbcb692583c7db646U, 0xbd7a07eabd2d4768U, 0x3c05d27a3d3b6ef2U,
  0x3d80f1423d72a536U, 0xbdbc3057bdbde8b4U, 0x3d4e7d67bda21eecU, 0xbd9fb5263bc4ce02U,
  0xbd9c15b3bd020c31U, 0xbdac008a3b60ea4cU, 0xbc9fd7b6bd099a9aU, 0x3d956013bd840d88U,
  0x3d7d0ab63c39d1abU, 0x3bf7dc063cf57c1fU, 0xbc0523cd3c9c0528U, 0x3d6754923ce7f52cU,
  0x3d6b2348bd621804U, 0x3d310e5fbd876dcbU, 0xbd50ac673cb6dffcU, 0x3d562ad23ba27a8cU,
  0x3d1556f43be5d18aU, 0x3cb835babdb212bcU, 0xbd75e0a73d6e61faU, 0xbd2d85d23d2277f2U,
  0xbd121716bd9aa1ccU, 0xbdaefc193d7be0ceU, 0xbb0aa4c4bcec0dccU, 0x3c9eee64bdbdf419U,
  0x3d74e480bd8a2011U, 0x3d85e3b6bd1c010dU, 0xbd820c713d5ad4e1U, 0x3ceb31fabd564ca4U,
  0xbd76b6693d1067a9U, 0xbd847dc7bd3faf7eU, 0x3c3b24663b0bf69bU, 0xbc00e5bfbb0ebefbU,
  0x3d2babe3bc66b177U, 0x3cf5f8373d98c4cbU, 0x3d1db1063d8077f8U, 0x3d04869d3cefbfa1U,
  0xbd8670cfbc4d06fbU, 0x3d7836d6bd6275f9U, 0xbd11d9df3d678009U, 0x3d3da282bbb23524U,
  0xbd0978f7bdc8857dU, 0x3ca463d23d66e883U, 0x3d92baeb3d6d9a40U, 0xbc5994e5bcf63c19U,
  0xbd201b86b9dd36a3U, 0x3c7383793a059931U, 0xbc8714cdbd6c8cd1U, 0x3cb752833d763a96U,
  0xbc5899513d9c7b78U, 0x3d34645dbda24ebfU, 0xbd4d40afbcb5eb19U, 0x3cbdac9e3d85b715U,
  0x3c7355a9bd730943U, 0xbdc3f8bebdb111caU, 0xbd2d2b653d03a5aeU, 0xbd92e291bd85d87cU,
  0x3cbe87e23d459864U, 0xbd09f72a3d567b18U, 0xbd51b1c63ca2f138U, 0x3d6ff609bd576a76U,
  0xb98362bebca08c66U, 0xbd0051edbcd12a8eU, 0xbd83e5633d2d7759U, 0x3c8d55783ca13d40U,
  0xbda2da023c4db3acU, 0xbdc12a403bc4232fU, 0xbd14b6443d6d1388U, 0x3d610533bd9bdc37U,
  0xbdbe35a33d537b4eU, 0xbd972dbfbc5526f1U, 0xbd7a1e1fbc14b5ddU, 0xbd622f6d3d6ea232U,
  0xbd90f9033c7c30fbU, 0xbc8e784abcd1e92dU, 0x3bc1295ebd70f116U, 0xbd6ad9e53d0e1e94U,
  0x3d35ad893d4bb84fU, 0x3d8a758abd268b10U, 0x3d800a5fbd6bff4dU, 0xbd874ce43d0561edU,
  0xbdbcf0a33cc741c9U, 0x3d3e3a073d53f5d8U, 0x3d8d96673c989ebfU, 0x3d14a87c3cfd0250U,
  0xbd958f143cac72e6U, 0xbd4b1f9abd7bdb2bU, 0xbd8cc754bb6f049bU, 0xbda872e23d93f968U,
  0xbc04b284bd5d071bU, 0x3c3f6273bd30a4dbU, 0x3d469f13bcc8d674U, 0xbd1f8a923d33d1f9U,
  0x3d837c1bbcf0a4bdU, 0xbd335eef3af12d78U, 0xba1d47883ca7ce51U, 0xbd831517bccb5ca8U,
  0x3d93e1613d02beb7U, 0x3da09015bdb4f50aU, 0x3cb999993d58d562U, 0x3da2dcd3bb4b03caU,
  0x3d8798e2bd16f39aU, 0x3d42e57f3a0367d4U, 0xbc7d7075bd27ff9cU, 0x3cbc9d4ebdbec192U,
  0x3cdbb2c13cbd13cbU, 0x3c71e6fd3ce66802U, 0x3d1594fabda81ecaU, 0x3d8ce2f73d72f665U,
  0xbd6bb35e3c32f943U, 0x3c5d6ae6bd846935U, 0x3d68f3763cc6f96bU, 0xbd8cd27b3d8bf8b6U,
  0xbce67be7bd1e5b38U, 0x3d389f3ebd0c8c5cU, 0x3da57efcbd901131U, 0x3c85037abc64fe2eU,
  0x3d830dbc3d31fa0bU, 0x3d9d9c4b3cfad3a5U, 0xbd38b76dbd7efb43U, 0xbc5c4403bd31bc8cU,
  0x3cec97b3bd59af96U, 0x3d56fa4cbc7dc0b9U, 0x3ce90880bd5afa4aU, 0xbd584c823d825a05U,
  0xbd2017663c967c3bU, 0xbda735e53c774d5cU, 0xbcb2e741bd4e7175U, 0xbc2cf291bd6f6f48U,
  0xbd36110bbd886476U, 0x3bd4cd43bd560c26U, 0xbcf7d639bdaeb19eU, 0xbd7b791bbc71051bU,
  0xbd70b9ee3d010d37U, 0xbd3db43cbca7956cU, 0x3a915491bc820337U, 0x3d989fb8bda4bae5U,
  0xbbd460843d2d6434U, 0x3d462c90bc993debU, 0x3d6c4cdfbd27fbb5U, 0x3d33c6ee3d461186U,
  0x3d50ff223d868061U, 0xbcc84f09bd98bfa0U, 0x3ce78ae0bd40d1cfU, 0xbd9cd82ebd5b8b94U,
  0x3c166ab3bdb06d19U, 0xbd8c5119bd97910cU, 0x3d4fdc0d3ce87718U, 0xbd55d487bcb68a0dU,
  0xbca0217abbc8c887U, 0x3c6f7e8dbc243b69U, 0x3d19331f3c9f99f4U, 0x3c6950e4bc1bd312U,
  0x3d3b0e043d183164U, 0xbda80b9e3c47ceddU, 0x3cb2c77abd9a85cdU, 0xbcb35ee73d88a522U,
  0x3d3308703d96bef3U, 0x3c8975d8bd2a2637U, 0x3d662dc63c002de8U, 0x3b29b10dbd25fba5U,
  0xbcabdb59bda45278U, 0x3d22ab433d9b8f6dU, 0xbdae4ccf3d9772ddU, 0xbd482b753d96b27cU,
  0xbcdfde05bd2a7268U, 0x3d844814bd1867eaU, 0x3d94f973bd9aa4ccU, 0xbdab00cfbd8ca4f9U,
  0xbdadfa77bda3134bU, 0x3d9fb53cbd5e8d78U, 0xbd71a2ab3be26899U, 0x3d2828a03d6f6b08U,
  0xbdacc6c03d2c59d4U, 0xbd5aeeb93c0bd7f7U, 0xbca9889dbca93a40U, 0x3c7203dcba918738U,
  0xbd315e0c3d40c5d4U, 0x3d88556b3d38e474U, 0xbda82abc3d19b567U, 0x3c2290eebd63f11aU,
  0x3d37ab68bbee412eU, 0xbd39c9dabd97d915U, 0x3d189f99bd2acf24U, 0xbd66a7013c361e81U,
  0xbc5c8338bd998118U, 0x3d156e6f3d3d00aeU, 0x3d28707f3d810af2U, 0x3d85ffc1bda379d8U,
  0x3cfc776cbd719858U, 0x3d63be1fbd30e1beU, 0xbcabf30cbcb6fe3eU, 0xbcc0f66cbd66731bU,
  0x3b5f7ef8bdb06705U, 0xbdc10575bdb80791U, 0x3d2e8b91bda88f2aU, 0x3d2d8467bd92e65aU,
  0x3d92356abd3316e5U, 0x3c1796e73d262801U, 0xbcff1f24bb39e9a8U, 0x3cfcdb2e3d9a9ca6U,
  0xbd7341713c987f71U, 0x3cf7a414bc377c27U, 0x3b82a1d63d3b74dcU, 0x3d98ab813beece68U,
  0xbd7bfd9e3d70e81fU, 0xbcb64e20bd949b15U, 0x3d83a4f1bcc5c1d1U, 0xbdc43fba3d89318aU,
  0xbd96487e3cd941a2U, 0x3d82b588bd00cca8U, 0xbd8b94a33d811506U, 0xbd9edad3bd8ddef6U,
  0xbc804670bcfadea1U, 0x3cac2ed4bd1b835cU, 0x3d51a414bd3046e6U, 0xbdab4207bc870228U,
  0xbd1d27ca3cf0d4e4U, 0xbd59132f3ca1914eU, 0xbd08df5f3d43f1ebU, 0xbdb18e96bd9183b3U,
  0x3c31f822ba8a2270U, 0xbd015ed73c5da5baU, 0xbda7ababbd4ff680U, 0x3d9b6299bd678be6U,
  0xbd7eed72bd835eb5U, 0x3d920d273d212f2bU, 0xbd00f101bc75f1d8U, 0x3d0d22cd3d2b6f50U,
  0x3d3949dabdb88aabU, 0xbdc2e3403c3ba286U, 0x3d715fea3d3ed331U, 0x3d5644d4bcd34d0eU,
  0x3d442415bd0a6b1eU, 0xbcd3a106bbaacdb0U, 0x3d916a6abb9d72d8U, 0x3d10442cbd33709fU,
  0x3c8d6b72bd12e692U, 0xbd8843603d06bb8bU, 0xbc4139c3bcb63d6cU, 0xbd589adebdaf3a30U,
  0xbd36bd9e3c7e1a8eU, 0xbdbb0f0ebd27c1f0U, 0xbd4222cdbd6e7022U, 0x3d5be455bd95d596U,
  0x3bd54b6abdb8dc65U, 0xbb17d82cbd80d100U, 0x3c7873ce3cda9fecU, 0xbdc3ac593d77e773U,
  0x3bf77c2abd39c3d3U, 0x3d96e7fcbcd3e771U, 0xbda6e8d7bc17d47bU, 0x3d92fd4fbd15d8f8U,
  0x3d0cd9a7bd1a5b9cU, 0xbdb376cf3cb5bf28U, 0x3d86ddefbda24496U, 0x3d58eda8bd89d176U,
  0x3d0092dfbdb9398bU, 0xbd0543bbbd70f9e5U, 0x3cd0053d3d3fc278U, 0xbd8dc8c53d75dffaU,
  0x3cfae2c4bda8000cU, 0x3d1ef975bd5cc790U, 0x3bc587cc3d6bf689U, 0x361930003d0715d0U,
  0xbb1803c0bcbfc99fU, 0xbc7ab85ebd8426dfU, 0xbd59d9723b3e76c0U, 0xbc721b8d3d5af384U,
  0xbda5daf8bd038b82U, 0x3d995b113d680594U, 0xbd240805bbc557fcU, 0x3c9d74ce3d0bedaeU,
  0x3cd0aeb63c85df8fU, 0xbcbb9197bd93e936U, 0x3d9377c03d9b3e79U, 0x3d28767c3c2b0b4eU,
  0xbca00d3abd2e9bd5U, 0xbcd1edd0bd457250U, 0x3d1d6feebc3a6ce4U, 0xbd901cc63d213044U,
  0xbcd3215bbdc12abdU, 0xbc099ecbbc3d0ad4U, 0x3c9dc3b4bcf1a873U, 0x3d53469a3d434fa4U,
  0xbcbf566abd22a4eaU, 0x3d7926a6bd89f454U, 0xbd80e58d3d96dedeU, 0xb9cb10e0bda1d15eU,
  0xbd98e5613b120bd8U, 0xbd9a5b9abd0301f4U, 0xbd7878973d901ef9U, 0xbc8c44ea3d8f71bcU,
  0x3d00981d3d774456U, 0xbdbdc5a6bdc49a6bU, 0xbc004ba33c12561bU, 0xbd37844a3d6e5cc7U,
  0xba2fa2b0bd6ed3e4U, 0x3d2dffec3d6e1f08U, 0xbbf3350e3b9f6ff8U, 0xbdbafdcebc39431fU,
  0x3d9631a53d5bbf53U, 0xbd20362f3d356bb1U, 0x3d2e78643c7bdbc9U, 0x3c929a7dbcbd7c30U,
  0xbc97b6ee3c686309U, 0xbc8e914c3c116f32U, 0xbd9286a73b7f7a5cU, 0xbdb531af3c98b2c4U,
  0xbdba44b23d93de2eU, 0xbc9b209abcd73298U, 0x3ccfbcbbbc91662bU, 0xbd713ad4bce33298U,
  0xb9bf7720bbcb05caU, 0xbd8d5f4d3c8dd39fU, 0xbd51d5e1bb5914ecU, 0x3d1a4bb33d517cd6U,
  0xbcbdd7b93cbfdebdU, 0xbbc116893d6afe98U, 0xbd27dcd5bd49e60aU, 0xbd796faaba94e5bcU,
  0xbdaa7105bb9ff9afU, 0xbcadb355bdaf39dbU, 0xbd109d223d0cfb28U, 0x3da77a433c134b9aU,
  0x3cf4355f3c43d734U, 0x3d471a9f3d805e36U, 0x3cae4e88bdaf1d48U, 0xbc7b0bfa3ce6bebaU,
  0x3d897803bd8b383aU, 0x3d7bc653bd828926U, 0xbd71f170bd81f3dcU, 0x3d2c293a3d2df334U,
  0x3d90c51dbd3694dcU, 0xbc0936f4bd96e166U, 0x3d86028dbd4f2311U, 0x3cde1329bc909cd0U,
  0xbc7ea9433d2e42e3U, 0x3d973153bd7af6e8U, 0x3c2e39a23d255a6eU, 0xbd3ee3133da5c439U,
  0xbd915facbd95a432U, 0x3cd7301cbd85b45eU, 0x3d8c64d4ba83bb1cU, 0xbd47c0c23d17e81cU,
  0xbd9dde083d59f660U, 0x3d47cc03bd00307aU, 0x3d1182cebd5561cbU, 0xbd9528fcbd35fcf4U,
  0x3d8577f33d010535U, 0xbd9e6e5a3d3c67eaU, 0xbd9857063d8b8cdbU, 0xbb5862163d2fefdcU,
  0x3c43379a3cacfae8U, 0xbb8ffe5fbc32cc27U, 0xbd512a8a3da22d78U, 0xbda6765e3d418290U,
  0x3da5090a3daa4a0dU, 0x3d02dec73d73f871U, 0x3d123266bd783d5eU, 0xbd81d367bd083adcU,
  0xbc1f72203d7a8d95U, 0x3d20fcd83c5ca2b7U, 0xbd1d02f03cbd62b5U, 0xbce2d2963d7fc0eaU,
  0xbc4c728b3c8910ddU, 0xbd2854ef3d95354cU, 0xbd87be743da9b5c2U, 0xbd4c1fbe3d90f0eaU,
  0x3d197ed6bc814f48U, 0x3c96247fbd025246U, 0xbd36c1d4bc4981feU, 0xbbb0b2553d53c57dU,
  0x3c1b847ebd49f373U, 0xbda68653bd8c54e9U, 0xbcba24c0bd4b763dU, 0xbd06d5303d92c3e1U,
  0xbcf1be9b3ba48a51U, 0x3d8fd88d3d6fc32cU, 0x3b8da592bd8b0086U, 0x3d3a4855bd0a1c22U,
  0xbb9b9c133d29ba09U, 0x3d8943f5bdac6bfaU, 0x3d7b26c9bd86b3b4U, 0xbcc1772bbd9a51f2U,
  0x3ab1a16ebd3065d5U, 0x3c8596fe3d672212U, 0xbd8956393d34c542U, 0xbd8b4244bd21cfa6U,
  0x3c9d82e53d0b2aedU, 0x3c795a0b3d656a7eU, 0xbda048103d7428fbU, 0x3d98da89bd84c720U,
  0x3da7792b3da906dcU, 0x3c532e323bb7b744U, 0xbd8943703bfc9dccU, 0x3d74f312bd902037U,
  0xbcbf5b603d8ff206U, 0xbda4b1023b9bb3c3U, 0xbda93ec33c7a4965U, 0x3d871c4e3d27d443U,
  0xbd9a1c0b3d3b702eU, 0xbce99d05bdafef23U, 0x3d842162bd947271U, 0xbd18a759bd2f71b4U,
  0xbcdc46a8bc0f3fd2U, 0xbcd335103da8bcd7U, 0x3d51608e3d416ae5U, 0x3cdcc391bce8c7b1U,
  0xbd0c37f8bd96d03aU, 0xbd90395c3cbc541bU, 0xbd2c35fc3cb9bf43U, 0x3d23bd54bd108589U,
  0xbcc68c0bbd4426a7U, 0x3d561bf3bcf01f7dU, 0xbcce90c63d125792U, 0x3d9b766cbc156a0fU,
  0x3da2be453d8e8cd3U, 0xbd6188d3bcea2f61U, 0xbd8a2f7abc989318U, 0xbcb80fa4bb57b0ebU,
  0x3d908fa53d811ad6U, 0xbc848b173d9b8272U, 0xbda88e893c17c310U, 0xbd9076203d51bbb2U,
  0x3ccf7a403d82d278U, 0xbdb1022b3c8f8ef1U, 0x3c1cd0c7bda4168fU, 0xbd46f2293d166193U,
  0xbd891fc2bd034a10U, 0xbd8f167cbda04e20U, 0xbd6ae2de3d419a39U, 0x3d5d2b55bd7671bbU,
  0xbcc560173d7de65dU, 0x3cee4a543c17c335U, 0xbceb29c3bd5d05d9U, 0xbc4a0d3b3d4f4bbfU,
  0xbd6fabe8bda23645U, 0x3d791687bdafcdebU, 0x3ad94f7abd38302dU, 0x3d13f9c2bd2e58c8U,
  0x3da830a8bd8dc83bU, 0xbdaa2a023a863099U, 0x3d03a6f03ca194bfU, 0x3d8542063d8f5c7eU,
  0x3d8beb81bdb4f770U, 0xbd5a9a8fbd859ac5U, 0xbbc6aaa03d80344eU, 0x3ba1ab90bb8c15b6U,
  0x3da5bd78bd8de9e9U, 0xbc6716283d2ceff2U, 0xbc583c37bd909b67U, 0x3da555073c639756U,
  0x3d41e702bc2f7b1dU, 0xbd2d1add3d9dbf02U, 0xbb8a2ce93d990e31U, 0xbdae0422bd2b85b4U,
  0x3d5615e53d9d7c28U, 0x3d6ba682bd9c198cU, 0xbccd133bbd65e823U, 0xbd9787a4bd98971aU,
  0x3cd93d40bc510d58U, 0xbd0bd77abcc5c21cU, 0xbcc4626c3d44cd2cU, 0x3c4282e8bd075877U,
  0xbd4ba4b13d9c4324U, 0x3cd0b6143daafa92U, 0x3cb71150bda5c101U, 0xbcb435e8bd351ab1U,
  0xbcdfe3ae3d94b13aU, 0x3d61dec4bcddd89aU, 0xbda4fc543d9038c8U, 0xbd9bd410bd679846U,
  0x3be2db003d4bb374U, 0x3d0266663d33ba50U, 0xbba595803d9e7740U, 0xbcc625f8bd3f23e3U,
  0xbcdfb424bc6750d0U, 0x3d8ca1c0bd019287U, 0x3d3e62a0bbad9920U, 0xbc5182b0bccecee8U,
  0xbbb1ff80bdaa1c88U, 0xbd80caebbd8a87eaU, 0x3d94e8a63d409c54U, 0xbd7ecb48bd4cb8c8U,
  0x3c725ea8bcaa0890U, 0xbd81cc373dad57bcU, 0x3d43a270bd96691dU, 0x3d7fcee83d6e862cU,
  0x3d3a0fac3d21dcb8U, 0xbd3989e6bb3feee0U, 0xbd93d73a3d930e84U, 0x3dae78ac3c168c08U,
  0x3d7722103b97e510U, 0xbcaf246c3d25eae8U, 0xbd81b6eebd0d0d15U, 0x3b0ef160bd747550U,
  0x3da932debd6e310bU, 0xbd201072bca97c64U, 0x3d07c1363d4f055cU, 0x3c0b6268bd60bba6U,
  0x3d199dfa3a114100U, 0x3c904e9cbda612c7U, 0x3c924fd0bc9c71e8U, 0xbc3283e8bc8fbcb8U,
  0x3cb95118bd1795e2U, 0xbbd6dfe03d6744f0U, 0xbd58332fbb9f67a0U, 0xbda0c71d3c125c40U,
  0x3c9bf2bc3d806a82U, 0xbd7de9a8bcd61904U, 0x3dacff303d5c2c98U, 0x3d781d403bae5a10U,
  0xbd880dae3ce3eba4U, 0x3c0b80b8bcd65fbaU, 0xbd9312f9bd9171b9U, 0xbc0872303d978ed0U,
  0xbda18bb3bcc79d16U, 0xbc1ea2183cdf4d40U, 0x3d8f1c8e3d7f5570U, 0x3d969cbebd1c4908U,
  0x3d951626bd231ee1U, 0xbb5ddd603d806f64U, 0xbd96fd083d28be0cU, 0xbd97b4d53ce6b9d4U,
  0xbd5f6236bd67ea28U, 0xbc011ea0bd948215U, 0x3d6506c8bb2e4a60U, 0xbd0ee69f3d0a7d58U,
  0xbd445b8ebd6015faU, 0xbccc6b943d3b1870U, 0x3c962ea43d3d57d0U, 0xbd601bcdbd710078U,
  0xbcb917c0bd84f99bU, 0xbd4b5ddabd882f85U, 0x3cf7502cbd5fb8e1U, 0x3c69ae403d293484U,
  0x3c6c52a0bda9960cU, 0xbb96b830bdabf2d1U, 0x3d9f2784bd966c86U, 0xbd16d991bd600dafU,
  0xbc14c468bd555107U, 0xbd0436fabcb76c98U, 0xbcb988bc3d9d0ca2U, 0xbc3ad588bda4c107U,
  0x3d2e97083be2e450U, 0x3d86091c3da49eacU, 0x3adbfc80bcf98e00U, 0x3d0c45183bf38e90U,
  0xbd58c48cbdaa5d31U, 0x3d915a18bcb70adcU, 0x3dad282ebcd01346U, 0x3cf10fa03d6dcf5cU,
  0xba4b1c00bbe12280U, 0x3d0ec9f63d7ca518U, 0xbdaa27663bec8350U, 0x3cc9d2c43d8a196cU,
  0x3d5dec3cbcf59edcU, 0xbcf0566e3d19b8d2U, 0xbd9018ccbd825739U, 0x3d7d9eec3d611d20U,
  0x3d95434839bcfd00U, 0x3daaadf2bd28c2e4U, 0x3d2c49b83d545180U, 0x3d49a9603bb50850U,
  0xbc337968bcd56958U, 0x3cbc9e3cbdaf9e05U, 0xbd4cbd28bcb91000U, 0xbd5fff9cbd43f130U,
  0xbd183255bce57ff2U, 0x3d8e537abca4aa7cU, 0xbd0640bd3d045972U, 0x3cb6d49c3d873a58U,
  0x3cc558e43bb922d0U, 0xbda9e745bd4e0238U, 0x3d227fc0bb94f320U, 0xbd874a93bba2c3c0U,
  0x3cc820a4bd37f1e4U, 0x3d7110f4bd391488U, 0xbda296afbca49820U, 0xbd3db6723d768cd0U,
  0x3cb702c4bc85a2d0U, 0x3c888c84bd5f0b0cU, 0x3cfe8e14bd1b7e8eU, 0x3d990b90bd81b90eU,
  0xbd199d85bb61bb80U, 0xbd790ac6bd747b6aU, 0xbc1565983d0aa764U, 0xbd2ae0113d102452U,
  0xbda5918cbcb4fdc8U, 0x3d002b7ebcfed152U, 0x3db06258b9cb8400U, 0xbda6cc21bd8ce046U,
  0x3d4a87e0bce1dcf6U, 0x3bb50bc0bce58664U, 0x3b39eb603d62d874U, 0xbda89fdebd27fe00U,
  0xbd9aa8edbc1f83e0U, 0xbd8aa3d83c6e8c38U, 0xbd81838bbd0e64c9U, 0xbd8d2d2dbc9664acU,
  0xbc8652d8bda3c1f1U, 0xbd1bd539bd513b7fU, 0x3cdc9ac43bd35760U, 0x39513000bd924af2U,
  0xbd0ebaf43c530507U, 0xbc84486ebd2ae565U, 0xbca7aa51bba7670fU, 0xbd17a8fa3d79bccbU,
  0x3bbb4600bd8d2a68U, 0x3d9b98303d0768f3U, 0x3b9eef2fbcbe830fU, 0x3b898fdc3c7ec68aU,
  0xbb4d3453bd3e21bdU, 0x3bb3fddb3d835964U, 0x3d9988b2bce5fdc5U, 0x395d09063c5e212dU,
  0xbcf7e65b3c94f57aU, 0x3d19c6adbc17e33aU, 0x3d1eac1abd88f771U, 0xbd196e333d3007d3U,
  0x3d2723473bd70d8aU, 0xbd7c84423d0c8d1fU, 0xbbfdcd313c9c2d1cU, 0x3b9ba2653c6e0687U,
  0x3c852bb6bd6c5b9aU, 0xbd36982dbda0ea44U, 0x3d3e0d39bdb2778dU, 0xbd0c3fbb3d6fc3eeU,
  0x3d2fdb9bbdc1e2a9U, 0xbc0ac699bd239648U, 0x3c13444d3cf6e182U, 0x3c8bc0ea3cc3fb6bU,
  0x3cc6dcd8bd7425baU, 0x3c906745bd434f6fU, 0x3d85923cbca1ff27U, 0x3d7e57103da20e05U,
  0xbdaaea333d9cd6dbU, 0x3d3b29c33a835e4aU, 0x3b609d26bca8c3f6U, 0xbd244872bd753416U,
  0xbd4c09f93d8bbb8bU, 0xbd9b08aa3cfa6003U, 0xbd6e7287bbcb06f6U, 0x3d5366a53d8f0d5bU,
  0x3d0b0e313d618767U, 0xbd87748d3d6e76abU, 0xb954f3f9bd421bd2U, 0xbc0854073d23c7ddU,
  0xbdb70bf53d970025U, 0xbdabd7e03d279ae8U, 0x3cd422a0bc9be089U, 0xbc03647fbd42f151U,
  0xbdb358723d99ca3cU, 0xbcb392093d7b5133U, 0x3d9f7d53bdb0625fU, 0xbd37b731bdba7311U,
  0x3cbeadb13cbaac2fU, 0x3cb7c941bce8b391U, 0x3d9322e43d228875U, 0xbcd35bdbbd239475U,
  0x3d56295ebd174376U, 0x3c3f50f53c81dd12U, 0xbc83363cbc261f29U, 0xbd7d0a3cbd1740bfU,
  0x3cd52e843d663ae5U, 0xbcf2eed43cfeb2edU, 0x3d4295eebd96d86fU, 0xbd3e14c9bd6825f3U,
  0x3d2c272abd8bbba4U, 0xbda002fbbd8f4301U, 0xbd7d1be23d95a151U, 0xbc51bb32bd6011edU,
  0x3c143db53c6a0114U, 0xbbc779713cfcf3d7U, 0x3d6143b4bd8f211eU, 0xbd78cb4dbce86c87U,
  0x3c3bc164bda93605U, 0xbd286c06bbc94907U, 0xbcb9de7cbd3dc4beU, 0x3cb9733abd54e584U,
  0x3cccbb03bdb74a18U, 0xbd67ce183d097c2bU, 0xbd6a6cadbd56eb2bU, 0x3cfc5792bda99c9cU,
  0xbcba09bc3d9151c0U, 0xbbfb3cb7bd308cdaU, 0x3c73645b3d9c516aU, 0x3d9510503d4bfb52U,
  0xbd529b94bd311361U, 0xbc8e1a0bbd13f43dU, 0x3d9450603c413cc2U, 0x3d82b3acbda82a9aU,
  0x3d4538b3bc484c1aU, 0x3cbfb9033ce522d9U, 0xba873970bcb0efd4U, 0xbd9e21b43d8c0a27U,
  0xbd605bf7bda4a7d3U, 0xbdacd005bdab8fabU, 0x3b81bd03bd2a6dd7U, 0xbdb73a0f3ccda1caU,
  0x3d6b520f3cb9636dU, 0xbd0825fdbdad0d39U, 0x3c2198293d17a6baU, 0x3c882d90bdb8a500U,
  0xbd8bc36b3d61356dU, 0x3d43ec003d0fa41eU, 0x3d8aa95a3d7bf2a6U, 0x3c8cfda6bc114790U,
  0xbd8e8c263ca6baa2U, 0x3cd45f63bd3e9732U, 0x3d1ebc30bd999ae4U, 0xbd4e35c93d6980b9U,
  0xbd9c39ca3c52cdcfU, 0xbcc0d237bd8ae754U, 0x3d67fc483d74aae5U, 0xbdb191b1bcfb5719U,
  0xbd7de5e5bcf31505U, 0xbd7f70aa3d43bbd7U, 0x3d00bd9c3d610e66U, 0xbd435e61bd9d91b3U,
  0xbc73f9953da3fc6cU, 0x3d55a74dbd461a01U, 0x3d4b6b2dbd282f27U, 0xbd42d2683d160ca5U,
  0x3ce9b25ebd801a27U, 0xbc3c6f81bd788497U, 0x3d88c767bd1c6603U, 0x3d9ab60f3c1986a1U,
  0x3d787eb63d8665eeU, 0xbd2b62803da2c488U, 0xbd0362d1bd14880dU, 0xbcfebbad3d17565cU,
  0xbd013e123da45b23U, 0xbafa79e1bd3893f7U, 0xbd0e81b9bd81672dU, 0x3d9127ee3c9ac234U,
  0xbd45f1cdbda9b2f9U, 0xbd84fb1fbc66dac3U, 0xbc2249e03d0b2a28U, 0x3d8b023d3c032173U,
  0xbc8f1b243d19b6ecU, 0x3d6f16973da1bf1bU, 0x3d9b75d13d511296U, 0x3d9a8cca3d988944U,
  0x3cbcdaa53d8d9e7aU, 0x3d6fb3b3bdbf4312U, 0x3d3102523bc353fbU, 0xbd42a321bdb4b6a1U,
  0x3d7c5e78bdbf732bU, 0xbd95c018bdb9819dU, 0xbd72e2a83d7ad9fdU, 0x3ccfe1f43cb81287U,
  0xbcd1a3273cd7b182U, 0xbdc1041cbda2f9d3U, 0xbd1e2376bce1f896U, 0xbc286d4cbd9076daU,
  0xbc0cfc043c3a2976U, 0xbd14e77f3b065758U, 0x3c3370d6bd18915fU, 0xbca64b6cbd26fef8U,
  0x3a07da903d9901a1U, 0xbc8ae752bd232272U, 0x3d1a3d58bd4f4fbcU, 0x3ce912b93d880a59U,
  0x3da136d9bc647e73U, 0xbcc563c43d22c584U, 0x3d7dc3ea3c71b98dU, 0xbcb3c4acbc946131U,
  0x3cb5df163d026c20U, 0x3cf14f04bd4aefa7U, 0x3cb1f44c3d296cd2U, 0xbaf52e603d9db920U,
  0xbd8d72593d8f5477U, 0x3d4e311fbcd9045eU, 0x3c8f8ca6bdbe7a40U, 0x3cef1f22bd6a696bU,
  0xbd3915b93d978344U, 0x3d82e0663d7a45baU, 0x3d86be50bd973516U, 0xbc8d6c70bd5cb01cU,
  0xbca9f6ecbd87a025U, 0x3ca922db3d1b7506U, 0x3d8dec3abcf20d2dU, 0xba8504183c8d8ee2U,
  0xbd2858563d04436cU, 0xbd4a53553d318730U, 0x3c90bc9ebd50ced1U, 0xbd8b15ae3d51aa7cU,
  0x3cd0b79ebdb1f29bU, 0x3d5668413d8e06abU, 0xbc532d4c3cc9ed1bU, 0xbc3961babd10f941U,
  0xbd931945bd100f65U, 0xbd7de5d53c898ca9U, 0xbc14dbc3bc0b721dU, 0xbd7401b23d3eeff1U,
  0x3d29af7d3bc2114aU, 0x3d3d3abebd56dc1eU, 0x3ca4f80e3d9e5ab0U, 0xbdbad14d3bc1efe3U,
  0xbd3ce6ba3d9a99ebU, 0xba9ca7e0bd3bceceU, 0xbd7aecae3cec0e5fU, 0xbd251c923d8d3eadU,
  0xbda711c23c6a517fU, 0xbd639d20bdaaae37U, 0xbd9abf583d28ed8cU, 0x3ba2bbc03cb63286U,
  0xbd5ef874bd0cab04U, 0xbb341d30bd4bd032U, 0xbd77813ebcc47544U, 0x3d353bf1bd171f41U,
  0x3c87c5acbbe8ce4eU, 0xbd424a523cda98adU, 0xbc9c82c33d8f8d69U, 0x3d677a8a3d98d7ecU,
  0xbb794360bcda9747U, 0x3c8d91953d17667aU, 0x3da1e736bdabeffdU, 0xbd19c872bd83d0adU,
  0xbd6f0b223d13d570U, 0xbbee0a8bbac83ae8U, 0x3d86a50fbce9794dU, 0x3d838646bccb4221U,
  0xbdb618de3cee511dU, 0x3bc7f90abc2f2998U, 0x3af277503b587c28U, 0x3c50b515bd5ae9ccU,
  0x3d562a4c3d597318U, 0xbd482e13bd7f4fd5U, 0x3cfcbe95bd660ba6U, 0xbcc17002bdac1f30U,
  0x3d8921dbbd417264U, 0xbdbafcc7bd780efcU, 0xbd44f4c83d422152U, 0x3d913eca3d1c95d2U,
  0x3cacff32bd141447U, 0x3d7086bd3d035cdaU, 0x3d9ad6d63d8f932cU, 0xbdb4ecb93d63a942U,
  0x3bad35803d0338afU, 0xbd96a735bcf30e2aU, 0x3b9282483cd151e9U, 0x394eb2403ce2d989U,
  0xbda0d5343d0eb46fU, 0xbd89357dbda44a52U, 0xbb06c434bda33f88U, 0x3cafbc28bd708af2U,
  0xbdae62db3d601323U, 0x3ae01410bc5f7a2cU, 0x3d3581cbbc10de0eU, 0x3d95ed69bd0c1474U,
  0xbd5ac9243be6b442U, 0x3d1d8defbd6a2abfU, 0xbdaa89fdbb3cd130U, 0xbce14bc03d7faa36U,
  0x3c9d8fa8bd0efc5aU, 0x3d3bd7b93d482268U, 0x3cfd54df3b118f2cU, 0xbd0dde673d6cf0d6U,
  0xbd583bb63cef3c88U, 0x3d5d159e3d12fa9eU, 0xbd32eb553d8e53aeU, 0xbcb561743d0cb03dU,
  0xbb029ab4bc8595dcU, 0x3d1f1a163d418345U, 0x3d83ebecbdaeddd7U, 0xbc801fd6bcf7e5f4U,
  0xbda4cd3fbd1ef63cU, 0xbd4e0229ba37c180U, 0xbc8cc0b43d61a05aU, 0xbd450e5abda531e8U,
  0x3d9f6722bd0e279aU, 0xbd8989acbd82f57aU, 0xbc2e53a8bd6ec903U, 0x3d2cba603d4336e1U,
  0xbcb6e21d3d2ed414U, 0xbd6346843d950c25U, 0xbd7d9bfabce410e0U, 0x3c99b0943b49a9e4U,
  0xbd8d96333bd7b325U, 0xbd687c8d3cf5ce84U, 0xbda6ce30bdaf412eU, 0x3d98bb2dbdb0f137U,
  0x3d4e6e6abd97e816U, 0xbdc135a03bcd143eU, 0xbd9fc8d8bd6b950cU, 0x3d2a5e82bbb1fb72U,
  0x3d7d55843d713f31U, 0xbbdb03ae3d8f38b0U, 0xbc1d545c3d3683b8U, 0xbdaac0a1bd5acfe6U,
  0x3cc82ec23cdfa712U, 0x3d9b9b04bcf75e80U, 0xbc03dc6d3b73dac0U, 0x3d1e7b763d973914U,
  0xbcf9d69a3b4ff4b8U, 0x3d99d33839d1c760U, 0xbc35fa8fbca84decU, 0xbc7341b83d9597b7U,
  0x3d57563b3d3a0798U, 0x3cd440683d3cb0ceU, 0x3d6a5616bad598d0U, 0x3d35167abcc5a3feU,
  0xbd75b83e3b933d50U, 0x3cbf0166bda512adU, 0x3d4081c53c5264c5U, 0xbc7a6491bd515bc4U,
  0xbd9de95d3d7217dbU, 0xbbb10e10bd1b8530U, 0x3c1b085b3ca032ccU, 0x3d7c85843cbece1aU,
  0x3d975e8e3cff2745U, 0xbd4663ef3d1d8063U, 0xbd852bfd3d6008c4U, 0xbd62dd183c987b58U,
  0xbca72e24bd51b450U, 0x3d3dcd3a39fff4a0U, 0xbd76f3cabdb53832U, 0xbda8b4713d686e7cU,
  0xbc9663b0bdb6b695U, 0xbc9b5ba73d4de01bU, 0x3cdf55ca3b0c4a60U, 0xbd82e5e3bda3aa6eU,
  0x3d13c5983cb2a59cU, 0x3d962f943d10658dU, 0x3d13493ebd0889f8U, 0xbd53a401bd90053eU,
  0xbdbfb2873d06bc5aU, 0xbd95c900bca04a94U, 0x3cb83ea6bdb3541eU, 0x3cee8559bd41eebcU,
  0xbd57d089bd1cf920U, 0xbd402ccbbab15088U, 0xbd36a6d1bb046bf8U, 0xbd5011b8bdb5b54dU,
  0x3d0327303d5bbc82U, 0x3d86578ebcc06f22U, 0xbd229fa1bdc32a13U, 0xbd291d313ccaa2c8U,
  0xbd612c09bd6e8a8bU, 0x3cc2dcc73d1bfd4aU, 0xbc8f9655bc712c75U, 0x3d8a3d8e3d018030U,
  0x3d89aa44bc356e02U, 0xba5522d03d181b7bU, 0xbd8c930d3c99d82eU, 0xbd6133943d88905cU,
  0x3d0933f63d1581edU, 0xbd7efbdc3d3bdf1aU, 0x3cbb385ebd9a4622U, 0xbd371fb63d8b4e4cU,
  0xbd99a707bca2b700U, 0xbc4ebbbb3d7b492bU, 0xbda135313d1c7a7eU, 0x3d82655b3cbe8480U,
  0x3d867ccb3d2f1638U, 0x3d43509abd2affdaU, 0xbdb9bf82bc3401acU, 0x3c9e6a3cbbf0d5deU,
  0x3cd31c14bd3b1774U, 0x3c55e54c3d84d896U, 0xbd2789e63c6a98f6U, 0xbd66bb7fbd10fd6cU,
  0xbd223937bd84fc38U, 0x3cd67583bd2cfc89U, 0xbd95d5e6bd5ba814U, 0x3c531a46bc31adbaU,
  0x3d9ebc3cbd07c4e2U, 0xbcb8e0bebd32f33aU, 0xbd33adbe3d360496U, 0xbd3d98e0bd81473fU,
  0x3d8a38a9bd68b89aU, 0x3c9ca67abd3608d4U, 0xbd0dd88abd4ed579U, 0xbc86568a3d91209eU,
  0x3c13d490bd60fc10U, 0x3c32428ebcc8a28cU, 0x3cf1f26dbd352c08U, 0xb906aac03d90187dU,
  0x3c6ca9f1bd9684ccU, 0x3d8a67e53d42ff5aU, 0xbd72a602bd16d60bU, 0x3d5d4c36bd098f98U,
  0x3d11e89abd48d84eU, 0x3d29f7df3d2f02b3U, 0x3d90ea6abdb6a3e1U, 0x3d16a9793d71daa6U,
  0xb9c7eda0bdaeeb6dU, 0x3c96e3723c1f2938U, 0x3d6c3d943d54d3ebU, 0xbd9673d4bdb1edb6U,
  0xbcab06723cefccceU, 0xbda6560d3d0a8d02U, 0x3b458a743d85ead2U, 0x3d722d8abc8e0d0cU,
  0xbce5ee0cbc1fedbbU, 0x3d9c8a423c2527dfU, 0xbcde9742bd834e5cU, 0xbd496bfe3c8b957eU,
  0x3d48da04bcb7f6e8U, 0x3d82f61abd4476b2U, 0xbd428e643d64b478U, 0x3b3856e83c41e17aU,
  0xbce10352bb068c70U, 0xbca0d5423c16bb9fU, 0x3d0be0c9bd0aa768U, 0xbc9e36603cb4c09aU,
  0x3d74c2a23c3ed550U, 0xbdb1c783bdb0b2a6U, 0xbd056cab3d1c0cfeU, 0xbd150514bd852d4cU,
  0x3cc0af29bd827904U, 0x3cefefe93c68c2bdU, 0xbd2b88debd2c5306U, 0x3c16ee473d838bcaU,
  0xbd8e87bf3c4f3272U, 0xbd95bd083cc0d286U, 0x3d8766643d762b60U, 0x3d580e5e3d8c5d7bU,
  0xbc6ed347bbe4fc6cU, 0x3d5c88a9bc41b2a3U, 0x3d1dab973c5cb24eU, 0xbca0b7a8bcf45908U,
  0x3d763d2b3c0c19ceU, 0x3d1f4a533ce3691bU, 0x3d9af31abcae8e17U, 0x3d74f4a9bc88c3e0U,
  0xbc2c06ab3d8afe97U, 0x3d813d7c3d08c58eU, 0xbc5d17b0bceafd9cU, 0x3c591201bd81c52cU,
  0x3d8ff890bda19b17U, 0x3d502c00bd99cf60U, 0xbda26bf1bd89edc0U, 0xbd9ef79cbd09ee22U,
  0xbd84e99dba26cc20U, 0x3d1df1eebd509a96U, 0xbc9d5b08bd6a6e64U, 0x3d4b0b773ae85800U,
  0xbd47978d3c0b3e3eU, 0xbd092ceebca2a862U, 0x3d88d42cbd9a615aU, 0xbd3ab6183d89a0b3U,
  0xbcaabbbbbcedaa65U, 0xbcde514abd0472faU, 0xb967fe40bd8621d2U, 0x3cb154b1bd513536U,
  0xbdba2a20bdbb6a2cU, 0x3c4d8ab33d3d07b8U, 0x3c4347a53bde2120U, 0x3d872032bbf8a5eeU,
  0xbd38c213bbaf2d9cU, 0xbd2a22ca3d1af8aaU, 0xbd3932e63c89e08eU, 0xbd27ad933d44812fU,
  0xbc8f1dac3cd76272U, 0xbca10c92bd957e34U, 0xbd3e953f3c327975U, 0x3d82b703bc939ec4U,
  0x3d785809bcf5470cU, 0x3d9c13d83d46b8c4U, 0xbc3cba6c3d8cee2aU, 0x3d6b41d4bd9dafcdU,
  0xbd20fd2ebd87577cU, 0xbd6b8ff6bd91fbb7U, 0x3d364289bdac336eU, 0xbb4858743c17328eU,
  0xbc868aa6bcd3ea60U, 0x3d96690abd01e377U, 0x3d648971bc8b86aeU, 0xbcfb5982bca74326U,
  0xbdc053db3b18dbdcU, 0xbc371928bced3521U, 0x3c0829403ba86f64U, 0x3d33c736bc9c1db3U,
  0xbd9793013bf33faeU, 0xbccefb66bd3a357aU, 0xbd9eb960bc8374abU, 0x3c97278d3cddb606U,
  0x3c8c4e683c8e5396U, 0x3d34da923d295529U, 0x3b929b0e3d70b92bU, 0x3d2d74fbbb3beea8U,
  0xbd5344cabd3716f0U, 0x3d7d40cebdc00267U, 0x3d9618713cd070cbU, 0x3b33302cbc71aaf2U,
  0x3d4e9ae3bcac39e4U, 0x3bb8a1f63cf177b6U, 0x3d020a843d3b35e3U, 0x3d97993abd5ddc94U,
  0xbaaa5738bd4e3bddU, 0xbd415f703d1adb04U, 0xb9f64380bd10f13aU, 0x3cdcdc443d4c28d3U,
  0x3c3b57783c7504ceU, 0xbd8a8c9fbd77b285U, 0xbd7d2a96bd33df68U, 0xbd5641603d933ebdU,
  0xbd8aef203d19073fU, 0x3d6dfbaf3d65dbe2U, 0x3d348ab13da08097U, 0xbda632b6bcab49c8U,
  0x3c457db23c54c1acU, 0xbda8c8abbcf1d424U, 0xbd9d94ff3d8d7813U, 0xbc82c394bc67fea7U,
  0xbc96c6963ce05e24U, 0xbdbd9274bc3094ecU, 0xbd7203d9bc2d26f2U, 0x3c7e9e01bcfeb662U,
  0xbba11816bcc9e759U, 0x3c15d35c3d1cf112U, 0x3d89e910bce9b096U, 0xbdbb56e03caa9801U,
  0x3d94b6b5bd01f08cU, 0x3d61d0fabc8a5f20U, 0x3c4dd84ebc998bccU, 0x3cd3a7323d54f5b7U,
  0x3d09e16bbb9e29e8U, 0xbd99305a3cbd8a59U, 0x3d99c0f43d91f82dU, 0xbcfa68d5bd9e80e1U,
  0xbd50f235bd3040ecU, 0x3c7f3267bb7d657cU, 0xbb7af99c3cb302c4U, 0xbc0c31adbd8ee645U,
  0x3d261ce5bc1e8da5U, 0x3c80f4673d689b24U, 0xbd6da8f13c547b44U, 0x3d4653a13aebfa48U,
  0xbca0bc90bbfc2180U, 0xbd2c310e3cf4b3c4U, 0x3d5de78fbcc4d86cU, 0xbd8c39333c82347eU,
  0x3d561260bd48428dU, 0x3d24b06f3d8dab71U, 0x3b686d2cbd90f6cbU, 0x3cf1e4e2bdb7cce6U,
  0xbdb60010bd117a82U, 0x3c24aaf0bd7ab328U, 0xbd8e362fbdc3a2b8U, 0xbc7fe177bb258398U,
  0x3d7507443d276ce9U, 0xbdc06551bd87a11dU, 0xbd67df78bd58505eU, 0xbd8be93abdbe8e10U,
  0xbd01ceaf3b730888U, 0x3d5a3ec8bdb933baU, 0x3ba8cf30bd7b4becU, 0x3c5c67b9bd0b0224U,
  0xbdb35591bd5e0d99U, 0x3a3945003d7b64faU, 0x3d62f32f3d9b2647U, 0xbd739507bd032c7dU,
  0x3c2d2dcdbd939b68U, 0xbcd76b643cf44d94U, 0x3b2ba08c3cb9cb00U, 0xbda3122c3d570d91U,
  0xbd65d39b3c6569fbU, 0xbd328d103cdabbc1U, 0x3d9bf3c53c0a4508U, 0xbd21a101bb553414U,
  0xbcebf2d83d3a8270U, 0x3d5d79a2bcae618eU, 0x3d7700823cf17f5aU, 0x3d3d51ed3d2a0b2aU,
  0xbcd60141bd87fe78U, 0x3cb59d2abc958882U, 0xbd9fe483bcb4861aU, 0x3d88b039bd76624cU,
  0xbd9f13963c21edfcU, 0x3cdcd95abcd5a78aU, 0xbd633dd83c9fe312U, 0xbd283ce8bdb6fa81U,
  0x3c5bedd8bd65eb45U, 0xbcc58aa7bda6b5cdU, 0xbd3e43d6bd867b55U, 0x3be582eabdbfe642U,
  0x3d60594abd309a52U, 0xbc5fd4a8bdb05f86U, 0x3d79ede8bcbb6a3bU, 0xbd1af43c3d07d9e5U,
  0xbd8a153e3c84e9ccU, 0xbcf927b1bbccde8aU, 0x3caf6551bd8bd7c6U, 0x3d1986f63d53a250U,
  0x3c5563a6bc85ca68U, 0x3ca3dc9b3d6a6066U, 0x3d83bea1bd525d79U, 0x3caded97bcbc7ef8U,
  0x3d8f3a243d150c6cU, 0xbae1cf30bd8b4be4U, 0xbd12a58b39eb0c40U, 0x3ba899be3cf67a48U,
  0xbd575a233d4aba0eU, 0x3b2df708bca37d8cU, 0x3c59feee3b97e9d7U, 0xbdbdaafc3ce28577U,
  0x3cf00c0a3d98246fU, 0x3c89ff333c4d306fU, 0xbd55ae01bd96316dU, 0x3d2d65cd3ca207a2U,
  0x3cb7b31a3cacbdbbU, 0x3c93e01fbdbeee1dU, 0x3c901bb4bd1b27adU, 0xbbb496d6bae6854cU,
  0x3d0646ad3d91a781U, 0xbc8790323b802b38U, 0xbdbc335dbbd3791dU, 0xbd3a266abc261467U,
  0xbd8f66d83c83e2b5U, 0xbd30ff543d89c48fU, 0xbc335eb8bd3022c8U, 0x3d9a63703cdae5efU,
  0x3d8242563d1d540aU, 0x3d983e8dbc1c4412U, 0x3d2b12453cfb58ccU, 0x3d89f9e1bd41d004U,
  0xbd46e497bd429373U, 0xbd5ef500bda5e560U, 0xbd543722bda231a2U, 0xbc6023fc3d96eab4U,
  0xbb1dc014bd81bae1U, 0x3d95514abccb6a30U, 0xbdbc6e903d70fbc5U, 0xbd02595c3d132824U,
  0xbd3b6a5abd253164U, 0x3d3ec550bda99737U, 0x3d8981423cc35ec0U, 0xbc85f16c3d79acf3U,
  0xbd180e1e3d3cc5faU, 0xbdb8ea843caca3acU, 0xbd54199dbd6f24b3U, 0xbdbd2a613c87df72U,
  0x3cda608e3a2a8740U, 0xbc23aba13d6ca62cU, 0xbd1fd6713c7d6b85U, 0xbd7fd46cbc8600d0U,
  0xbd5a14febca58802U, 0x3d8050ac3c233d92U, 0xbd040a41bcd535c3U, 0x3d831b5d3d703441U,
  0xbd8e57473cd9d63cU, 0xbda06417bd1cb3a7U, 0xbcd2627c3d4e7bc6U, 0x3cbbc71abd618468U,
  0x3cc9265dbd8f6971U, 0xbd0c31c03d0f9039U, 0xbc4482d7bc10683cU, 0x3d7382dbbd42db51U,
  0xbd71ef533d78cb43U, 0xbd50dc6fbd89509aU, 0xbd3be283bb287460U, 0xbcab9dbdbd81b8b4U,
  0xbd1ac0e9bcef0104U, 0xbd5e1241b9b28360U, 0xbd8c050e3b8dffcdU, 0x3d03c01c3d1b64ecU,
  0xbd2218993d792a10U, 0x3cdde014bd09708cU, 0xbd78ff1f3d6e2442U, 0xbda21ce4bc085acaU,
  0xbc1854f5bc8d91b4U, 0xbc615b82bd5fa5b4U, 0xbc9db897bceec7dcU, 0x396d66803d03e8e1U,
  0x3d32c358bda62920U, 0xbd9beb313c8cb2baU, 0x3cb991b8bd3a0b0aU, 0x3d3af42d3b558f40U,
  0x3cf0cb383ccdabf8U, 0x3d4f96fcbbb82b97U, 0xbd247d39bc9eaf06U, 0x3d8f063e3c24852fU,
  0x3d6be3f2bbb514d6U, 0x3ca1ec97bd8f0cc2U, 0x3d8e17c2bdaa384aU, 0x3c92aca9bd06cf32U,
  0x3baaa790bd94072cU, 0xbd33adb2bd8dfca0U, 0xbcedef22bd05fcb7U, 0xbd97da5c3d842c1dU,
  0xbd9ab4623d8085b3U, 0xbcde0b20bc5fa8c2U, 0x3d1374acbca96266U, 0xbd56af303c8fbf48U,
  0x3d67c9d93d3c709eU, 0xbd951e813d9864b6U, 0x3d6929d03d46abc6U, 0xbd911b5b3bc3e966U,
  0x3ced75febd45305fU, 0x3d2f10003c317756U, 0x3d3d2d1bbdb49ad9U, 0x3c8e781ebce04c82U,
  0xbd41929c3a93b010U, 0x3cc5a12bbd5c7cabU, 0xbce98ba63d9bbc15U, 0x3d8ded6cbd6895faU,
  0xbd3f6186bd45678eU, 0xbd9c6452bd0145beU, 0xbdbfba823d54a8c1U, 0x3d8a3baa3c752bc4U,
  0xbda960073cddad16U, 0x3d834066bc9072d4U, 0x3d8dbd33bd22d2a0U, 0x3d7f1c1f3d1cf557U,
  0x3d7d78803ce878d8U, 0xbdad0fbbbbd0f8aaU, 0x3d373f04bd9223ebU, 0x3c1bdd09bc53a286U,
  0x3cc14186bd528901U, 0xbbc80c21bdb08fd1U, 0xbc8106883d290464U, 0x3d968eca3b374dd6U,
  0xbd34f1163d9676deU, 0xbb1577e0bd0f145fU, 0x3d52134ebc869134U, 0x3d5d34b33c821368U,
  0xbdc134c3bda2130eU, 0xbd9ae8c23d8271d8U, 0xbd8271cb3d562d95U, 0x3d3a99503d42e609U,
  0xbdadd7d0bcb269a8U, 0xbd9d8d5e3b9aaa80U, 0xbda23db33c4eefd0U, 0xbd75d960bd5c12fbU,
  0xbc9f53ac3d07fb30U, 0x3d5ccc18bc810a30U, 0xbd7248c8bd83405eU, 0xbd6a99d23beed2f0U,
  0x3d611dccbd5e5dd7U, 0x3d344bf43d2529ecU, 0xbdb0d2e93d0ae572U, 0x3c6f06d83d057506U,
  0x3b9c6cd0bba5c450U, 0x3d8cdcfcbda5cb62U, 0xbd9c952d3d877b6eU, 0xbda456133cbb4130U,
  0xbd4292d6bd531052U, 0x3da6e59c3d59a87cU, 0x3a8da3803c72fc70U, 0x3d99d87c3d9c53c2U,
  0x3d22c4b83c0eaeb0U, 0x3c871da83d279a04U, 0x3b2ae1c0bd1741e6U, 0xbcc4778c3d590150U,
  0xbd9729acbd3a78e1U, 0xbd9167c1bd1a5b81U, 0xbda52caa3d5be774U, 0x3cea0f203cae4d7cU,
  0xbd224c8b3d15dba0U, 0xbd357e17bcfb9112U, 0x3a9d48c03d3f4cbcU, 0xbd64f858bc2a2e30U,
  0x3d6d84b43d97ffacU, 0x3d1a1d20bd9032aeU, 0xbd965d343da286d6U, 0xbc610ae0bda5ca9eU,
  0x3d99145abd9ce1b6U, 0x3ca1458cbca735a4U, 0xbd7937b4bd36e92cU, 0xbc97f0a0bc736310U,
  0xbbb7de60bce9167eU, 0xbc613c383c995250U, 0x3d245a80bd36f9f3U, 0x3c22da60bd08bb04U,
  0xbce7d9b4bcf0133aU, 0xbd2456b63d6da8b4U, 0x3cb43f443c972adcU, 0xbd85ce5bbd896f23U,
  0xbd760b16bd8a6e84U, 0x3d59cca4bd485d41U, 0x3d744950bcb0d958U, 0x3da16fd6bd4fa6e9U,
  0xbd510075bd8e9fe4U, 0x3d0b87c23d1d0674U, 0xbc352f30bdabd1c4U, 0xbd7c1b653d5e8cdcU,
  0xbd66792f3d5c35f8U, 0xbd488a7cbd195524U, 0x3d5341c4bd884646U, 0x3d86904e3b152560U,
  0x3bcf7660bcc6090aU, 0xbb152ea0bca296a8U, 0xbc404e003d461024U, 0x3ce234443c779000U,
  0x3d031c6abd708ce1U, 0xbcb079143d0543b0U, 0x3d87acb0bd32c851U, 0x3d8df9823baf0b70U,
  0xbd180474bc67a860U, 0xbc92ce90bd45693cU, 0x3d616d7cbd82bf1dU, 0x3d247758bb1807e0U,
  0x3cd23ba03c7691b8U, 0xbd5798bb3da15c92U, 0xbd8848413d1bccd2U, 0xbdacb32e3d984c42U,
  0xbd1390013d5fe6f8U, 0xbd897f153d057d94U, 0xbcfe506abd984e27U, 0xbc7114703c64bdc8U,
  0x3d91f7e6bc973300U, 0x3d17e182bd47c732U, 0x3ace35803dad324eU, 0xbdaa661f3d7b2038U,
  0x3d8eb2e63d4de414U, 0x3c38a048bbbe3740U, 0x3c4d2710bd68c1d6U, 0xbcff771ebdaf0b9eU,
  0x3da34554bc923544U, 0x3c8cb20c3d97391aU, 0x3d1955d03c09e1f8U, 0xbd22d539baaccc80U,
  0xbda3c1f93cd7ceccU, 0xbda71688bd969e1dU, 0x3d01ec443d6287c8U, 0x3da166dabd463baeU,
  0xbc6c0840bc203510U, 0xbcdb9dcebbb2e500U, 0xbdaa13b2bd9e7475U, 0xbcbd30f43ca7b774U,
  0xbd8574fcbd856294U, 0xbd5fcd30bd3db2c3U, 0xbd7d14e0bdaaf5b2U, 0x3d397414bcd4ca56U,
  0xbdb148fb3d4f3dccU, 0xbd4920bdbd1c23d0U, 0xbbd6af60bd901127U, 0x3c290a003dacaad2U,
  0xbc428950bd1a5478U, 0xbdb0ed7cbc5b2030U, 0x3cf378f8bd9786efU, 0x3cc40f743cdd4578U,
  0x3d3f166c3b951f70U, 0x3d1fdb6c3c8ab09cU, 0xbd879dd03b449680U, 0x3c22d8603caec640U,
  0xbc6736403d0608f8U, 0x3daab9eebc3f53d0U, 0x3c7316983d2e7b8cU, 0xbd8a01713d1fd4c0U,
  0x3d0e4c78bcb2cd78U, 0xbd1bdf923cc708f4U, 0x3d97479a3d9e8c62U, 0xbc433a503d8cd8acU,
  0xbcbbe93cbd09b20cU, 0xbc072970bcccc6e6U, 0x3da89620bd843101U, 0xbbb32b503d84ce4cU,
  0x3d258cf0bd04dcdeU, 0x3d4ab460bcffa8eaU, 0xbd781be8bd3cd10eU, 0xbda3abe63bc5bab0U,
  0x3d835404bd1b363eU, 0xbd51b26d3ce9c734U, 0x3d809ddc3d993976U, 0x3d414d1cbd455b67U,
  0xbd8cd6d6bca4bd68U, 0x3da409ac3a7c1400U, 0xbd2bfc20bd1a504aU, 0xbd681a7abc84b96cU,
  0xbc96c80cbca09df8U, 0xbd6b14d2bcf92860U, 0x3d636540bd6dc097U, 0x3d1220a43d180d70U,
  0x3d9c36b5bd4f782aU, 0xbd2352debd377b29U, 0x3c9a5a353da18c96U, 0x3cd66ccebc88ab2cU,
  0xbc5d92c8bcc6887bU, 0x3d0b3d383d4d93f9U, 0xbd687db8bbee53a0U, 0xbd8d41163ccb6f11U,
  0xbdb63b6ebd81cc4cU, 0xbdb67b6a3d9e2e07U, 0x3cf1e6ba3d2b023aU, 0x3d6eb9283d8e58afU,
  0xbd6f05c83d896409U, 0xbd5b02f83d3859aeU, 0xbd9db583bd719fbbU, 0xbc9335aabb934460U,
  0xbd2cc1153c6342b1U, 0xbda17dfcbc317abeU, 0x3cb67b5a3cca93c4U, 0x3d935fa0bdaeee7fU,
  0x3d9c69e8bd2081c0U, 0xbac5edd43d82362eU, 0x3ccc2a763d0e0094U, 0xbdbc4a2f3c3f179aU,
  0x3d769d003c2a278fU, 0x3d9e256cbd2f7e8bU, 0xbdb13f98bd3609a9U, 0x3d1116b0bb9de954U,
  0xbb064de0bc0fe3bfU, 0xbd9ce5623d0fa771U, 0x3ca7194bbd2a6fb6U, 0xbdb980293cfc20d8U,
  0xbc2f9107babe51a0U, 0xbd3aae903c4654f0U, 0x3d9063263d6888fdU, 0x3d5c67483d9aa37eU,
  0xbca7054abd3d72c1U, 0x3d960f7cbd639512U, 0xbd951460bd2b846eU, 0x3d85a126bdc0d8e5U,
  0x3c1b96fe3c663c4aU, 0xbcbf5364bc5038d3U, 0x3c637b49bd9cc02eU, 0xbda5f3143d7ba8d6U,
  0x3c7c2fe73cf01f03U, 0xbdbff516bc7e0582U, 0x3d16fd60bcb9b273U, 0x3d6fde3c3d19ed9eU,
  0xbbf8fd3e3d13affcU, 0x3b6bd500bd1757d6U, 0xbd57ebcc3c950951U, 0x3d3744debd9ef73dU,
  0x3cbadfb9bd972ac5U, 0x3d27607f3af4a648U, 0xbd66c10ebd7b5b82U, 0xbd3832613d6dc3ecU,
  0x3d03c1203d44a13aU, 0x3d8ea16abd448e4bU, 0x3d770504bd24a8cdU, 0xbc9ee1f53b0ba408U,
  0xbc0756bd3d6bbf6eU, 0xbd94eb50bcba1ad0U, 0xbdb443363ce76eaaU, 0xbd6d9dce3c9f0cfbU,
  0xbd5a40323d66f8feU, 0xbdb10cf73bd38098U, 0x3d806f77bdb51a20U, 0x3c8465d4bd4aa970U,
  0xbd2ea6eebd4b19eeU, 0xbcc04f263d25deafU, 0xbd857bd43d9c69e6U, 0x3d04ae143d682755U,
  0x3d4547043c513843U, 0x3d7632973b2557d4U, 0xbd8ec2963d2e76e9U, 0xbce8ff2cbd2be618U,
  0x3ce5193a3d79c5b4U, 0x3d0e63683d23496dU, 0x3b8544293cfd861dU, 0xbd41154fbb09d93cU,
  0x3cef87043d80aaf4U, 0xbc809d263c946284U, 0x3d39c6a33bfbc458U, 0xbd4aeefc3d552b42U,
  0x3d005916bcaab2e9U, 0xbce59e883bee579aU, 0xbcf439bd3d662b55U, 0xbce8962ebd2199abU,
  0x3d8afb26bd1d9895U, 0xbd98b1b8bcdcfd88U, 0x3cc1f302bcda008cU, 0x3d983915bd57149aU,
  0xbd3c71c1bd915682U, 0x3d81afe23c375f49U, 0xbd181ce63bdc9a3cU, 0x3d6f11f23d9105ccU,
  0xbd8c39aabdb0c023U, 0xbb870b00bb155370U, 0xbd8a996c3c40ab7cU, 0xbda8e994bda8cf91U,
  0xbbc8918cbc717b1cU, 0xbd788f65bcfbfd59U, 0xbdb04cc63d2849a1U, 0xbdc11d6bbbd9cf6aU,
  0xbda0635ebd22e584U, 0xbc88780a3d3a7b51U, 0x3d3eaadbbd8253a2U, 0xbda05897bd20cc39U,
  0xbd682cdb3d5a707bU, 0x3d3559febd8c72bbU, 0xbcff20cbbd8baf2fU, 0xbd7b0cc1bdb4e5f1U,
  0x3d98293d3c30023cU, 0xbdb91597bd5534c3U, 0x3d091623bdbf05d1U, 0xbd87a278bd380295U,
  0xbd1dcf22bc7670dbU, 0x3d5bf888bd3c446aU, 0x3d0e2fd73c775bf3U, 0xbdac2bdebcaab470U,
  0xbd0c9ffb3d10953bU, 0x3bc63b323d8a7a49U, 0x3d042c1dbb959fffU, 0xbd37048ebcbf8c70U,
  0x3c83a8ac3d39898fU, 0xbd9da2643d35b9efU, 0x3d283c0fbc2d7040U, 0xbbbc6dc23d48fe41U,
  0x3d8a14d13d93320bU, 0xbda1e58c3d956cebU, 0x3d03c7183c411574U, 0xbb06d7243cb567d4U,
  0xbd0f9212bd528173U, 0x3bca25b23c30a505U, 0xbc84a2cabd0b32d7U, 0xbda0f244bd8c99fcU,
  0xbb43bb683d908fd4U, 0xbd845bbe3d32f8d1U, 0xbc87338539f04d00U, 0x3d943e803c035f5bU,
  0xbd81dfeabd60f706U, 0xbd20c94ebd3fb875U, 0x3c2e37be3d9b3abcU, 0x3c81b056bb9e80e4U,
  0x3d8ede3d3d7ac5d2U, 0x3d445cb03ce99b73U, 0xbc3c1b903c856a5aU, 0xbd9b11473d1987b8U,
  0x3bcbbd1cbd1ecb0eU, 0x3d74b72e3cb6e11cU, 0x3bc356acbcbb715fU, 0xbd6f7fb9bd44b3daU,
  0xbd7921103d0c42c2U, 0xbc8a0b9b3d84052cU, 0xbd7e7f00bd8a7855U, 0xbda7935a3cf23a16U,
  0x3c3d17aabd8d3332U, 0xbd9a51f3bcd49c6cU, 0x3c1ed6483d32655dU, 0x3d743b01bdb8608cU,
  0xbd1abf95bd5f86d6U, 0xbda429f0bd4dfe62U, 0x3dab8b2fbd0a9320U, 0x3beea49cbd27543fU,
  0xbd699d6abd192017U, 0xbdae3f973d55361eU, 0xbda83f1a3d632337U, 0x3d2bf1bc3d9c9ab1U,
  0xbbe8e606bc9c242eU, 0x3cbff23a3d7fbf58U, 0x3d02e9553d3eae7bU, 0xbd17329ebc9a4628U,
  0xbd252ede3d732d49U, 0x3da0f0bcbc6b4012U, 0x3da84261bd4fc78dU, 0x3cfbd4723d81b79aU,
  0xbd61f6d3bcd16122U, 0xbd7edd0d3d14f1acU, 0x3d49c493bd121016U, 0xbcfe39083d674040U,
  0xbda8a40c3d2a4bccU, 0x3bae6122bba33b2aU, 0x3cf5d88dbd5471f1U, 0xbd40e84abd92e9feU,
  0x3d77a6a0bd04ef77U, 0x3d4693f03d9e3a34U, 0x3ca52acfbcf290deU, 0xbd6c1c9dbbd409c1U,
  0x3d8899a2bd1ab454U, 0x3cd982343d901027U, 0x3c837eb9bb38680eU, 0xbc4953da3c8f385cU,
  0xbc1985cbbcc12012U, 0x3cffef9a3c19d744U, 0x3a86d7d0bd997a3fU, 0x3d526d00bd157e28U,
  0xbd8dc9d43d99f011U, 0xbc0d2f24bdaf0dc1U, 0x3d12319c3d528906U, 0xbdaf3c5e3cf80c7cU,
  0x3d85fb5abdae9a0fU, 0xbd0129013c626b33U, 0xbc9f7d5e3b23fed8U, 0x3d6d70abbd9cefacU,
  0xbd977ab63d91ab9cU, 0x3bde0d2e3d1439acU, 0xbdba2fff3cc01b80U, 0x39c6dae0bd5a75b5U,
  0xbc0b89b23c1bcdadU, 0xbca42ee03cd81a58U, 0xbd538fda3ce657feU, 0x3b8e8b683d8468b4U,
  0xbda769e8bd0269f0U, 0x3cb2ca9c3b97977aU, 0x3b8a7ceabd4f48aaU, 0x3d15bb63bb30817cU,
  0x3cf9f666bd53128cU, 0x3cd3e18cbc43afadU, 0xbd85481fbc0e37daU, 0x3d9390c93d02d281U,
  0x3d907eb43d66252bU, 0xbc90f584bd48b264U, 0x3c925a7fbd8e9924U, 0xbd3805ea3bcb6dbaU,
  0xbda9d00f3bd80438U, 0x3c12dc6d3c46e370U, 0x3d7d09b9bb579fa0U, 0xbd7703cfbdb0dba0U,
  0xbda91a8bbd830789U, 0xbd212272bd9282e3U, 0xbc386994bd9864efU, 0x3d4102edbd86844dU,
  0xbdc0bab3bd121425U, 0x3d92e71bbd0c96f5U, 0xbc50af8f3c2b2875U, 0xbdcbc328bcc1a67eU,
  0x3c38401cbc45e289U, 0xbb12b1203d2a2c49U, 0x3cdfd27a3d82a5abU, 0xbd1b4d18bdb08ce7U,
  0x3d1e097cbc3ff80eU, 0xbda124c13c8412e2U, 0x3d7d2b733d070e2cU, 0x3d6e2155bdad1879U,
  0xbd7d85423d9da912U, 0x3aa98e60bd9ac6a1U, 0x3cc30f11bcb2b2a6U, 0xbd9c2e08bda94989U,
  0xbd5229b6bd6abab8U, 0x3a664ed03d336982U, 0xbd7a4f8b3d503efcU, 0x3cdcb81a3ccd35e2U,
  0x3acdd130bc07360cU, 0xbd111c1ebd435e03U, 0xbc4cafc03da1b613U, 0xbd9452223c2bf6f1U,
  0xbd8438613bdbd218U, 0xbd5b1e683cd57551U, 0xbd5ca6f13c9ba914U, 0x3c8bc8f5bd97850fU,
  0x3cbdfba4bd1eddc6U, 0xbd8dc2c7bd9f45eeU, 0xbd0a327dbb81c12cU, 0x3d5c40d0bd87c99cU,
  0xbd33f91abd8e61c9U, 0xbda81abb3d8f6dd2U, 0x3d9f82483d2923d3U, 0xbbc92ec03d8a38faU,
  0xbceae2223b8292aaU, 0xba1c82e0bbb5b4eeU, 0x3d83c98bbdc08973U, 0x3cf53a543ba03a6aU,
  0x3d8d08343d23a29eU, 0x3d65eaa63cd3196eU, 0x3d8048863cb190a8U, 0x3b3a9348bbb65380U,
  0xbba2de00bc632a54U, 0xbc53d3d7bbd405f0U, 0xbcc3990c3ce7864cU, 0x3daa78fdbd9e25b4U,
  0xbd062e7d3ce37250U, 0xbd5ae9513c36ec86U, 0x3d251e06bcaffc40U, 0xbc0e3e4c3cdc5a0fU,
  0xbc6d1f523c8e420eU, 0xbd8546cebdc8adf0U, 0x3d3bf2203d9839e5U, 0xbd0b75f23d106fdfU,
  0x3d4f977ab9b20640U, 0xbcebe284bd368540U, 0xbc915c82bcd2890aU, 0x3d41126dbdbf7768U,
  0x39d55360bd47e810U, 0x3c8abb3abcafdbc0U, 0xbd64a3b2bd1ea849U, 0x3d2ba5763cb98e7cU,
  0x3b481b843d8f30c8U, 0xbcabef22bd17430eU, 0x3b9f878ab7f49e00U, 0x3d36ecc5bc723da8U,
  0xbd767e62bc50d416U, 0x3d82629ebcf646afU, 0x3d8f9d07bd52d36eU, 0xbd45cecd3c6dbca5U,
  0xbda032edbd95fe4cU, 0x3c59cc793ccf9d5fU, 0xbd6ac6d93d647097U, 0x3cc1dbc23d1fa358U,
  0xbc878586bcf9d194U, 0xbc341b9abd660c30U, 0xbd7c5fb43d83d1b2U, 0xbcf818023cfed997U,
  0x3d31f033bda32d87U, 0xbd2889033c1dc822U, 0xbcd4f26ebdb7bdd8U, 0x3d8068573b687a8cU,
  0xbd71f5e8bcedf212U, 0x3d34231abd939cc4U, 0xbc13df20bc531fc4U, 0x3d5566d23c4229a9U,
  0xbd15a6dc3d1d7fd9U, 0xbd2764cfbd85ec3bU, 0xbbffda2a3d82c790U, 0xbd0e7c313d29ac4eU,
  0xbd4ef969bdb01e73U, 0xbd2030d03d61865eU, 0xbd9a009c3ca1db33U, 0xbd84dd063d503005U,
  0xbd7d30acbd1decb7U, 0x3d737e243d863954U, 0x3d7460233d842f0fU, 0x3d0a61b0bc98a59aU,
  0xbd8ee5f2bb1f26c8U, 0x3812e3003d014d76U, 0xbd8624b4bd3a4cd7U, 0xbdc3e9ca3d3b6457U,
  0x3be7d529bd15d8f5U, 0xbdbf41f33d8fa737U, 0x3d3c64013d21a491U, 0x3d615572bd8a885eU,
  0x3d85d954bbab60ceU, 0x3d906786bdb72c94U, 0x3da0d53abda58aeaU, 0xbd2551e13d91a11aU,
  0x3cfb2a66bd26b6dcU, 0x3cb3386fbd4a65b0U, 0xbdac8a313d410ea6U, 0x3d61becd3cffa788U,
  0x3cc30cb23cea6ef2U, 0x3d75e76abd4904c6U, 0xbd8405a6bb900d2fU, 0x3d4ec8a83cc0832cU,
  0x3c13d502bd1a10bfU, 0xbd495dd2bd3f089bU, 0xbc94a50bbd123dd6U, 0xbc9b13f03d28edd4U,
  0x3d5171afbd9143c1U, 0x3d96b042bc9f9cf2U, 0xbca188e2bcb1476cU, 0x3d7eca853d3da111U,
  0x3d949e463d249551U, 0xbd9726d63cd8d515U, 0xbdb3e381bda17d72U, 0x3d0bd13d3c1496c6U,
  0xbc80ab413d50550fU, 0xbd9cee9ebd9be7aaU, 0x3d67a1fabca866c2U, 0xbc5a1811bd775133U,
  0x3ce50bba3d13c9c9U, 0xbcce53e9bb70ba38U, 0x3d82ee91bdbd12d7U, 0xbdc63338bd6c0dfdU,
  0xbda6363ebdc2c04eU, 0xbcc8602cbd1c9ffaU, 0x3cf607923d11aaf9U, 0x3d7945c4bdc91f88U,
  0xbdb5d35e3b54a9d8U, 0xbd9c599cbd32fa4eU, 0x3d166a84bb9df442U, 0xbd88d65a3d16357dU,
  0x3d151d8fbc2a663aU, 0xbc0d2f813d3b5571U, 0x3d1a8cddbba26058U, 0xbc0ca6373d9bbf80U,
  0x3cc4bd5f3d4471a3U, 0xbdae22683d33db44U, 0xbc767c6cbbdfe136U, 0xbdaa05973c1df971U,
  0x3b3d0ba4bd70ed5aU, 0xbd24cab53d491974U, 0xbd6b045fbc8bebaaU, 0x3cd225c8bd833ad7U,
  0x3d89f792bd22e5dfU, 0xbd2bc9f1bd12e665U, 0x3d5fa004bcaba2c8U, 0xbdc274653ce10517U,
  0x3d8ec83abd91dfceU, 0xbd4978093d8703eeU, 0x3d039b5b3cfd3469U, 0x3d471f3abdccb7e6U,
  0x3be2bfe43d8c4460U, 0xbc7d81973d80c5acU, 0x3d8878a6bda328bcU, 0xbcf41c44bd74ff41U,
  0xbd0186d0bc841312U, 0x3d82b1413c1d48bcU, 0x3bd3ea44bcbcb7fcU, 0x3d4c8c193cfbb28fU,
  0x3d9688d4bd6c4576U, 0xbdcb153fbda2c618U, 0x3cbde0293d8569a7U, 0xbceda4eebdc3a7c6U,
  0x3d150f243d5b6d73U, 0x3d7704dbbcf211f8U, 0xbd6e9e0d3d7f84a3U, 0xbc91f94abbd015bcU,
  0x39a9ad60bd8a4ee0U, 0x3d6f9750bd1f3702U, 0x3cb044823d41da7bU, 0xbc960bf03cc02b44U,
  0x3d8741993b61b984U, 0xbd4663bbbd30a438U, 0x3d2b2ab33d312101U, 0x3cc4fae63c5abd4dU,
  0xbd5832a2bd20580fU, 0x3cb4065dbd9c06d8U, 0x3d97016c3cf8a4a6U, 0xbd138ce23d392ff0U,
  0xbd59a4343da035ddU, 0x3b3763583d4bec80U, 0x3bbd6be4bdb8c26dU, 0x3d6ec9a0bd905110U,
  0x3cb718a23d560875U, 0xbd39381dbdadcf58U, 0x3d0c4c723d3a53f9U, 0xbce294563d353cbaU,
  0xbdb010a03da49ca3U, 0x3da30451bbd963e8U, 0x3ca63b71bd8f12fcU, 0x3d98e4eabd570674U,
  0x3d98c209bcb37a1dU, 0x3be03ba3bcb7c882U, 0xbdb2f6c33d59d36cU, 0xbc6ac6403d16a923U,
  0x3d302b9c3d2fb3bfU, 0xbd9d7600bc56ff1fU, 0xbd9181d7bd8cf93fU, 0x3c4fe32b3d850027U,
  0xbce3be9ebc5b10dfU, 0x3d3bb6ee3c0144d5U, 0x3d0888d03d98cf93U, 0xbcb10968bd7c220aU,
  0xbdad3aa7bbbc0f06U, 0x3d1746263c80cb5cU, 0x3d92cc6bbd0461daU, 0x3d8222f23bff1106U,
  0xbcbb625ebda6182dU, 0xbd8d989b3d8f7f51U, 0x3d07c3653d838c96U, 0xbd855fdb3d2750e4U,
  0x3cd868b93d36be5dU, 0x3d2759ea3bb5dc12U, 0xbd62b75a3d8a3d27U, 0xbd82a8113cbe9c59U,
  0xbd551c3e3d5c9527U, 0xbd5c2782bb6f89dfU, 0xbd19b6c53c8ac825U, 0xbd5474a73d2e2379U,
  0xbcb94df43d98703dU, 0x3cfca030bb217267U, 0xbdb396e4bd22a989U, 0x3cbb05f3bd25c380U,
  0xbda41fa1bd77b372U, 0x3d55a0cf38824120U, 0xbd82b4413da6edb0U, 0xbd868e453d4acfc8U,
  0x3d504e1c3d9967d0U, 0x3d3d38dbbcbcbf90U, 0xbd84fb02bdb0f9d0U, 0x3da3af25bc459206U,
  0x3d26858d3d44eb0cU, 0x3d42d1293d9bb35bU, 0x3d2c2a72bd153560U, 0xbdab8c7b3d0ab3e9U,
  0xbd8d4e74bda5b4d6U, 0xbcf0b195bd977585U, 0x3a85b5a2bd1a3223U, 0xbc7e3b3ebd83ac73U,
  0xbd98dbae3d8355bcU, 0x3d83f5f1bd030573U, 0xbd83c049bbc24615U, 0x3c95090abc24866cU,
  0xbd3c775b3d62e628U, 0xbc9d235bbda2c1b0U, 0x3d36b7363d4a1f73U, 0x3c58bde4bdaf8b9fU,
  0xbdb72c51bda67f23U, 0x3d2c2fb63d16aca2U, 0xbd134c3cbd8cff58U, 0xbd9729da3d068da6U,
  0xbdaeda2b3d0dc5ffU, 0x3cbc5d363d49e183U, 0x3cf181e43d640699U, 0x3d006fb9bda3c7dcU,
  0xbc85bfa63c6dde1aU, 0xbca279a0bd100387U, 0xbca6b11abdbac364U, 0x3d2493a539a6d7e0U,
  0x3d51eb54bcf70c95U, 0xbd926548bd11cf25U, 0xbcb49145bda3daa5U, 0xbd0c2671bcb1c8e5U,
  0xbcfd613cbd3a27f4U, 0xbca3b75f3d5dc568U, 0xbda923b83d913ee4U, 0x3d3c47ecbd25cc62U,
  0xbb8f55b7bd422fa4U, 0xbd5201e8bd45aa86U, 0xbccc0daabdb5d05bU, 0x3b560b26ba389b8cU,
  0xbd86119abc6ed885U, 0x3d8e17153d39068dU, 0x3cc57e4c3d6c6ce1U, 0xbd05ae6dbb96e1ceU,
  0xbd991cdf3d87e52fU, 0x3d6dc7723d8cda90U, 0x3d50e3a33b64b090U, 0x3d576ac63da2a3afU,
  0xbd5a66623d436997U, 0x3bb194243d2796ceU, 0x3cdc91c7bcb3c13bU, 0x3d99ef2abd870357U,
  0x3d9b207fbcb6165eU, 0xbd4173f33d717ac5U, 0xbb879596bd967954U, 0x3c5169acbdb4b78fU,
  0xbd0f78093d42bbd8U, 0x3ce453003d071e99U, 0xbd6fb6b63d71a838U, 0x3d1828bd3c9a9e6cU,
  0x3c8921073ca4d1b2U, 0x3d4549f63ca556b6U, 0x3d8ca409bc7adf93U, 0xbd555e683d3ffb2dU,
  0xbd93ae763ccf0acbU, 0xbbdf51aa3d916362U, 0xbdac0dfe3ca6425bU, 0x3d21cb52bc6e21abU,
  0x3c7093653d162109U, 0xbd927623bce6b595U, 0xbcde870b3cf9c277U, 0x3d0d55b13d5bba26U,
  0xbcb087fdbce42377U, 0xbc9572e83d456ed2U, 0x39e70430bd018278U, 0xbcd969183cb45f2aU,
  0xbd26bee0bd7e6d5aU, 0xbd44cca43d724d5bU, 0x3d264a62bdaeacf7U, 0xbdb3359c3d3b9524U,
  0xbd1cd7f7bd74a8f3U, 0x3d167f403d9a3529U, 0xbd2eec8e3d3f58f1U, 0x3da19914bdb99debU,
  0x3d84e5d6bd604f36U, 0xbcaf8eaa3d153c0cU, 0xbda1e43cbd90e0bbU, 0x3d96e9c9baf9cce4U,
  0xbca9db123c3666d9U, 0xbdb3e81fbd8a3f64U, 0xbdb7fdb83d714c3aU, 0xbcf7a63a3d82e335U,
  0xbba88a273ce3f0cdU, 0x3c36c971bd3db192U, 0x3d85269abd0fa28fU, 0xbce6a1b0bcd61e4bU,
  0x3c4a8148bdac93c0U, 0xbc09894ebd52e844U, 0x3be483d0bd165c59U, 0xbc88b59abd27c3afU,
  0x3d9ec7d33b83ea9cU, 0x3d9bc31c3d4d36a4U, 0xbca08f553d774e12U, 0x3cdbab7cbd59a0bfU,
  0x3d89bd9b3d1120b3U, 0x3d31b487bba9e419U, 0xbd28cbf13bdf0f1aU, 0xbd2add05bcdbc990U,
  0xbc8ae1d43c97ca59U, 0xbd986073bcacd1ccU, 0xbd3019c5bdbce573U, 0xbd9195e13c490816U,
  0x3c1a58963d1d70d7U, 0xbd40ada5bb02f2d4U, 0xbdba3d2e3ca64651U, 0x3c51c5433c4f3c6bU,
  0x3c6dd510bb9f61e6U, 0xbd0d09b03d3a1a1dU, 0xbd1b429f3cf679a6U, 0x3d698cc4bbb1603aU,
  0xbcfda060bce7ac7fU, 0x3c96b8e23d867724U, 0x3d6865673b8ce316U, 0x3d3b513bbd0582c4U,
  0xbca7ec28bd8237b0U, 0xbd96abe4bd38a390U, 0x3cffdd3b3b4b1cd0U, 0xbdb7c3403d08a0afU,
  0x3bdbdfc2bd9b926cU, 0x3c542ae1bd4d557cU, 0xbd96569f3d9223f4U, 0x3c9e8415bd8593e3U,
  0x3d492885bdaa636bU, 0x3d0b6d1ebc50ca6aU, 0x3d6a2bbfbd879f1dU, 0xbd4694943d8a4862U,
  0xbcef72593d981e78U, 0x3d8ca070bdb551c1U, 0xbdbfbdaebd2d9250U, 0xbc862ade3d5e20ffU,
  0x3d01ebb8bd2e9898U, 0xbd908e283d894ae9U, 0xbc1570a73ca782ccU, 0xbd2650b63cbd36baU,
  0x3cdd9fb2bdad1135U, 0xbc53b1da3a938098U, 0xbcc595b03c52c0afU, 0xbd7aa9033d51f6caU,
  0x3d2492f03d5ceb44U, 0xbda153c13bdbc7eaU, 0xbcea35b6bda52232U, 0x3d869384bcbdb5f7U,
  0x3c21149e3d3b82b0U, 0xbd352d163d8c4c9eU, 0x3c8f1bdc3d893144U, 0xbd9edd6abd33a3d3U,
  0x3d5734993c94891aU, 0x3cbf249d3c568b35U, 0xbd92953dbd5588b9U, 0x3d8738433d379c4aU,
  0xbda87869bb627528U, 0xbd8cd5a23cb23e1dU, 0xbd67e77c3d1fe7d1U, 0x3d7cb9b73cbe6818U,
  0xbda128cebd5552e6U, 0x3c848852bcd060adU, 0xbd31b426bd27b5a4U, 0xbb3805283d45e79aU,
  0xbd64bdcfbcbbaedaU, 0x3ca98e9dbbdd9b0eU, 0x3d2a8ff4bbf63ea8U, 0x3b90ee363cdaeb04U,
  0x3b870ed938c13600U, 0xbdabeaee3ce04b3dU, 0x3a7085d0bd8b65caU, 0x3d74430a3d24ecbbU,
  0x3c819d923ba4f3b8U, 0x3d8c0c74bcb0a4f5U, 0xbdaec505bd2c3844U, 0xbd047e1e3c33dd72U,
  0xbdadb3cabd9c2fbdU, 0x3d66de7a3cdc6516U, 0xbd14ad8bbd665485U, 0x3c3e7100bc4c8fbeU,
  0xbce29c683c13c48dU, 0x3c3c0cedbd7d5309U, 0x3d3f76cebd9f8e73U, 0xbd8da1813d49d767U,
  0x3ba8b060bd4448beU, 0x3d2d366dbd4006faU, 0x3d0d22ae3d185db0U, 0xbd8b4c35bd63a475U,
  0xbd8631643cdb1839U, 0xba6d5368bd1a8e88U, 0x3d71a25cbbf1c3a6U, 0xbd81a5cc3ca6ad12U,
  0xbcdbdb47bdaacd11U, 0xbd319f12bd840474U, 0xbd89a6673d87cdfaU, 0x3d915af4bc54abf4U,
  0xbcb5e0febdb68ab6U, 0xbda3ed9ebcb61de1U, 0xbd993ab23d412248U, 0x3c7fde18bd8c4b09U,
  0x3d7b8f5cbcfca5c8U, 0x3c35f98c3d8968efU, 0x3d7b44febcf02ab8U, 0xbce314483c84fc76U,
  0x3ca8f8ce3d836367U, 0x3d9aa9a23d025b98U, 0x3d0c34353d0c1dd4U, 0xbc4c1f143d9a4f48U,
  0xbd33b7fabdb132e6U, 0xbbc493f8bc2c8b08U, 0xbd3c903e3d58a868U, 0xbd9c4e8c3b681ac4U,
  0xbda48092bda57b77U, 0x3d8ec89c3c062ce5U, 0x3a3ef8d03cba16b0U, 0xbc853a9ebd8666f4U,
  0xbd8759ad3d34a875U, 0xbc3b712bbdafbeb6U, 0xbc5ae6e3bd10cbbbU, 0x3b606b50bdb35f28U,
  0xbd00c0b33d6d0aa6U, 0xbd75a5413c5c7015U, 0xbd6a74bfbcfd45c0U, 0x3d4d35603d810e2fU,
  0x3ca99fd1bd3d496eU, 0x3d97392bbd85d392U, 0xbd2c486e3d72b658U, 0xbdb5384a3d9f1984U,
  0xbd770ea8bbf91a2aU, 0xbd5a23453d8fa3a6U, 0xbc30eb89bcd31516U, 0xbd4d993abcee6af6U,
  0xbc5479bebcb46f14U, 0xbbe8fec23d56dbecU, 0xbdaa4d90ba625390U, 0xbc72a0c8bd67671cU,
  0xbd9505e7bdae3c1bU, 0xbd90725abd816eafU, 0x3d9178293befb42bU, 0xbd52dc633dadec3aU,
  0xbd8fca3bbd4d9301U, 0x3b1722733dae5b9bU, 0x3d9524003d8682afU, 0xbd30d8963d5f2902U,
  0xbd9b43fa3d69f817U, 0xbd965bbf3d110a2bU, 0xbd31a082bda0eb43U, 0x3b5d7fc6bc29939eU,
  0x3d0b107b3cc0eb20U, 0xbd2edecebdab6066U, 0xbd95814a3d0fc9f8U, 0xbd9630353d87713aU,
  0x3aa756ca3b6becd7U, 0x3d8e9c8b3c8f9d75U, 0x3d2715a63cac27b9U, 0xbd52a473bdb06eebU,
  0xbbf8d9eebda60c58U, 0xbccbbb253d4d3883U, 0x3d73b8db3d8168cbU, 0xbc061647bd0c8e2cU,
  0xbd4b8c12bd127722U, 0x3d94b8febcb19a28U, 0x3d0d87a6bd42fe0fU, 0xbd1e5628bd88378eU,
  0x3da2739cbd57ea3eU, 0x3ce02ecc3c6552c9U, 0xbda2d57d3d30761cU, 0xbc13f010bd14fcd5U,
  0x3cb342edbd8fb57eU, 0x3d84f1073a3d6ffcU, 0x3cbdacf03c2dd1e6U, 0xbc29a36abd42d846U,
  0x3d88a2da3da78a23U, 0xbcaf3d9e3ceed711U, 0xbc926e1bbda1335cU, 0xbd9a0616bd9c7dadU,
  0x3cd95d10bd95bedbU, 0xbda7f692bd7720abU, 0xbd33d748bd8c91faU, 0x3d343167bd49b6f6U,
  0x3c937d7dbdaf619eU, 0xbc9b28bfbd351873U, 0xbd34b3303cf96983U, 0x3d812af3bb198d55U,
  0xbc34367dbd808ea1U, 0x3d9282573bca8c12U, 0xbd25d46dbb9472ccU, 0xbdac8a343d11a1ecU,
  0x3b70a6a4bd0b71ecU, 0xbc477da0bba56cfcU, 0xba81ebb03d25d300U, 0xbc8eee803d9d0c66U,
  0xbd92d8f4bcbaf5d2U, 0xbd9090633d97593aU, 0x3d7e6c28b9c0cd98U, 0x3d09acddbc42068aU,
  0x3d00cc60bda31be8U, 0xbd0fa85abba8846bU, 0xbd5cda373d4f68a8U, 0x3b5a2c6a3bae34e0U,
  0x3d541e1c3d2874aaU, 0x3c8b457a3d374b57U, 0x3d265a473da2001aU, 0x3d8cd81cbd71e704U,
  0xbc05b5af3d1180e7U, 0x3d27a4683cbabcdcU, 0x3b839f45bd203b4cU, 0x3d80df243d7f3558U,
  0xbd4cb286bd07e339U, 0x3c9689093d75f999U, 0x3d5c842dbd7c5d2fU, 0x3dae7c003d862529U,
  0xbd312735bc297a14U, 0x3d88a573bab1fc42U, 0x38a543e0bc9a8370U, 0xbd1a8a723d5b2bbfU,
  0xbcd7adccbd4850ebU, 0xbd8e280dbd7897d7U, 0x3d85f8aebdb0b553U, 0xbd0df9ccbda83e11U,
  0x3c45fba0bd820ceeU, 0x3d75d0d33d4808f9U, 0x3ce1d80f3d1664b5U, 0xbd8e5b16bbdb5484U,
  0x3d86a3a63cfc909fU, 0xbd6da04e3d2ad7f0U, 0x3da4a914bd34729bU, 0x3d9e2671bd07b46aU,
  0x3b2173c9bd2d35b9U, 0xbd587e8bbd86bbdcU, 0x3c898a0fbbb567caU, 0xbd916906bd940aeaU,
  0xbdad655b3d33fd5fU, 0x3c9cee66bccd8d7aU, 0xbda7298dbd2fd087U, 0x3d5e7e733c82d196U,
  0xbc80240ebd6c0bf3U, 0xbd8b838abd21c147U, 0x3da7afecbc1524bbU, 0xbd5583f9bda83e73U,
  0x3d9729dc3d8e4a31U, 0x3d9b6264bdac57b6U, 0xbd65cf9c3d543a28U, 0x39ec67fc3c99967aU,
  0x3d36e77dbc3a70f7U, 0x3d8dcce8bc793e37U, 0xbdb1d21ebd84e38dU, 0xbc1956b33d254c12U,
  0xbd4faaaf3d26587fU, 0xbd3d57cb3d53f3f7U, 0xbd941c21bdb1516aU, 0x3d86d8f73d728913U,
  0xbc5320e73d5eb3f4U, 0xbccf03d43c4494a2U, 0x3cb73c403d4066aeU, 0xbd9509613da906d3U,
  0x3d64c5cc3bb0adb0U, 0xbda2f044bcb421bcU, 0xbda20228bbe6784aU, 0x3d97441cbd98a492U,
  0x3d8a4ca93bbe2d32U, 0x3cdd31793cf70ae8U, 0x3ca43d4c3ce85bdaU, 0xbd8858e73bffb21fU,
  0xbd1628bcbd77385dU, 0x3d5d088ebd996284U, 0xbcb5fb80bd0fcce4U, 0x3d3a21cb3d3a8c12U,
  0x3d8ecef2392e1fe0U, 0x3d1aa953bd01d7d6U, 0xbd78519fbd0cd9deU, 0xbcf52fb93dafcda5U,
  0x3d838c08bd26bf47U, 0x3d1e7a693d722873U, 0x3d5aed7e3c80b1deU, 0xbd7e9d823d9b57d5U,
  0xbd94bf6cbd1b4c1cU, 0x3d265dd7bc946115U, 0x3d18660fbd50299bU, 0xbd6ea6f63d95cec1U,
  0x3d87fb0cbd9338fcU, 0xbd3c696f3d733afeU, 0x3cad2fee3cbae671U, 0x3c1dfc09bdbd1cc3U,
  0x3d6911903d8595a3U, 0xbd1cf537bdc2d847U, 0xbd08fdc63d3097abU, 0xbdb8455c3d18ad11U,
  0xbd8ac165bd44f866U, 0xbce06a503cb47532U, 0xbd2acc21bd9eda44U, 0x3d63b6fdbd9d73d6U,
  0xbd255648bb90ad04U, 0x3d8e258ebc22af89U, 0x3b9a8cb23ceae400U, 0xbcd426e4bd8aab98U,
  0xbc6cefaf3d92cf00U, 0xbda433ba3d616f18U, 0x3ae23b88bcee9fdeU, 0xbc9859e1bbe0cfc8U,
  0x3d489f00bc83883aU, 0x3cf12636bd9f294fU, 0x3da027f63d88f3baU, 0xbc03244f3d49c75cU,
  0x3d698360bc94beb9U, 0x3d8f43483d185829U, 0xbd30ac6e3d73ca1bU, 0x3d86017b3d9a285dU,
  0x3d14360bbd721793U, 0xbd073bb0bd459f50U, 0x3cc348ce3d543a31U, 0xbc157854bd89ee0aU,
  0xbc2af8eabd9685e1U, 0x3d8a020c3cdee459U, 0x3d3d3be4bd0551b6U, 0x3c3aea55bdb20f1dU,
  0xbc19dc88bc23bb4eU, 0x3d254d1ebd5c7566U, 0x3cbfca4a3cd37550U, 0xbda3a1313d744effU,
  0xbda28ee23cd894dcU, 0xbdab33eebdc4c95cU, 0x3d8d0f763d81a242U, 0x3caca2343cb9b18eU,
  0x3cf6a7783cb436beU, 0xbd23d2573b011ec4U, 0x3c15559a3d26d644U, 0xbd8eaf8ebd0bbf86U,
  0x3d34deea3d97186eU, 0x3b5ac7643c9e7b01U, 0xbd3323f23d4c8efcU, 0x3d6233c93d819486U,
  0xbcad500a3d2100aeU, 0xbc86fb26bd5ad9f0U, 0xbd1ca406bd93cc75U, 0x3d3a5bcc3d7cadc8U,
  0xbda268eebd831f21U, 0xbd9c213fbd8ed934U, 0xbd2ad790bdb4a1e0U, 0x3c3337ba3cae6274U,
  0xbcb52c523d6852b6U, 0xbd2ef19abc2dbfa1U, 0xbbfe88343cdbfa80U, 0xbcb01c3bbdb485e7U,
  0x3d5836003d91ff39U, 0xbd9516ca3bf48cf0U, 0xbd97a23f3d96bf91U, 0xbced361c3a82d3f0U,
  0xbd26178e3bae1480U, 0x3d769000bdadac66U, 0xbda8153dbd9e9a62U, 0xbd8d0bec3d8fb4c6U,
  0xbbd08b563d8a8e47U, 0xbdad21afbd12e2d2U, 0x3c3a51723d8802f8U, 0xbc80c04a3d4aaf5aU,
  0xbd8537aa3d2750fbU, 0xbd5ec539bd015971U, 0x3bedaefebd91c8e5U, 0x3d9042253c120740U,
  0xbd4fb06cbd1765c1U, 0x3b49bb60bcccca00U, 0x3d87766b3d58c83fU, 0xbd8581c73ceb107dU,
  0xbd4e9e5f3cd9b102U, 0x3d101e4bbd79b0f2U, 0xbd149d64bdc4815fU, 0x3d4181043d9ab4acU,
  0xbd99ec01bd89d1cbU, 0xbd6604103d48a86cU, 0xbd76432c3d446bc7U, 0xbbd4a5c6bc9a4222U,
  0xbdbb6f773c821e50U, 0xbce31ef2bd041827U, 0xbdb757273d45830cU, 0xbc7fae7c3d942954U,
  0xbd41bc863d01bdf9U, 0xbdc155b23d3a6cd8U, 0xbc4c2127bdadc36aU, 0xbdadbff73d7fcd7eU,
  0xbd34ec74bcfa1edeU, 0x3d6878583c13f4d7U, 0x3cc968eebd59a265U, 0x3d140de5bd9592f4U,
  0xbdc3f2513d9848c5U, 0xbca7fa6abd855f94U, 0x3d599316bcf041c4U, 0xbcee6f64bdb3ece9U,
  0x3cef4d84bd05a880U, 0xbd1e18fa3d95093cU, 0x3d49bc373cfd6426U, 0xbd2eaaa7bc65c3e4U,
  0x3c8546123d6cf5e8U, 0x3d20a47fbc7b3dccU, 0x3cd5ea47bc6e79b3U, 0xbd823722bda03011U,
  0x3c8b7b44bd096252U, 0x3d49db8fbd81ee34U, 0xbd7bd32e3cdd08ceU, 0xbd7f395abdc47c34U,
  0x3ce450fc3c9ff710U, 0x3d9d7e7fbccf6852U, 0xbc124c393c89c03dU, 0xbda04ccd3d85438fU,
  0xbda74a22bdc069d6U, 0x3d4b3ce8bda0164aU, 0xbd709d973cac629cU, 0xbd190a6d3d13d572U,
  0x3d92b259bd014217U, 0xbd94cf2dbd9a156fU, 0xbd1791f5bc967b98U, 0x3cc94214bdaf6bbdU,
  0x3cc59772bd8a2934U, 0x3cb4bc66bc90a387U, 0xbd0d5d9a3d0d09bbU, 0x3d8f02543b8984daU,
  0xbd72c13d3cdb3ca5U, 0x3cf6ea433d12d5ddU, 0xbae50590bdc0e62dU, 0x3ca537e5bc464ab4U,
  0x3d6afe553d8c92c5U, 0xbda3bd4c3d78ab31U, 0x3d938ffabdb101a0U, 0xbd9082c7bce4eacaU,
  0xbd45aca13d28ca37U, 0xbd3b554abd2320fdU, 0x3cefdfcf3c6259acU, 0x3d6072b4bd7aa479U,
  0x3d9320a7bc02cb93U, 0x3c057ab8bd9b10c3U, 0x3d91566cbdb5978cU, 0xbdaec8383c6a08c5U,
  0x3d8c201cbd563827U, 0x3c52b8533b94155fU, 0xbdb5d68abd796a0fU, 0xbd0ac7f8bd0a7abfU,
  0x3c91d6b4bc9f78f3U, 0xbcf6d2fc3cf05330U, 0xbc1b47fbbc456262U, 0x3c37406e3af9b5c8U,
  0xbd11ebe9bd8a9caaU, 0x3c29d754bd754c83U, 0xbd77f4d5bd490a22U, 0x3cd8b92abcbee5f2U,
  0x3cc8c20d3d227e37U, 0x3da2264d3d327286U, 0xbd63e0863d194f95U, 0xbd8baacf3c54c9b9U,
  0x3d1276d6bccda736U, 0x3bd8f9d73d89a3d4U, 0x3d9418853d3e9cb8U, 0xbc9d80723bdcec3dU,
  0xbdc891b73d8657e4U, 0xbcc1a577bd85a594U, 0xbb96ffa9bdb3e00eU, 0x3d69f6c8bd8c7a11U,
  0xbdaea1cb3d5af925U, 0xbd1b05f93c490d01U, 0xbdbf2894bd04d245U, 0xbcf74294bcf71440U,
  0x3d3f27f23cd0a7ceU, 0xbbf325873c87e505U, 0x3d585501bdb46356U, 0xbd96331d3d0334ebU,
  0xbd0e4b9cbdb1c385U, 0xbaa7742c3d6717c6U, 0x3c24b3e6bd7da672U, 0x3ce4d7cebd14a956U,
  0xbd4868e83c3ca632U, 0xbbb55d143c02e67eU, 0xbc876f563d72085fU, 0x3ceba140bd263a9dU,
  0xbdae3f36bc448992U, 0xbd226519bd33c44eU, 0xbdb1a956bd59cb84U, 0x3c123b26bd0e4d9cU,
  0xbd6557ab3ba7135dU, 0x3d1679433cc106dbU, 0xbc0f88253b99ce9eU, 0x3d80421ebd9fdf03U,
  0x3d548135bd90cc9bU, 0xbc440fda3c96e1eaU, 0xbd92a2353ceb944eU, 0xbd1d62febc8d90e0U,
  0x3d7081c83d0f348fU, 0xbd29f95fbd97fb85U, 0xbd8aa5b93d713616U, 0xbbac591bbc0ebd93U,
  0xbdc4db30bb71407fU, 0x3ced935e3c7bde98U, 0x3d873c663d02d2b3U, 0xbc1f77503d945784U,
  0x3d9d43fbbd51cedfU, 0x3d5456b93d6554ddU, 0xbd56d23c3b591dc0U, 0xbca6b1633d36a25aU,
  0xbd9169e43d4cddc3U, 0xbd93804cbd0d8a72U, 0xbc1e41853d603442U, 0xbd49cdcabd92e0a4U,
  0x3d5165723cce8f20U, 0x3d5a3cc9bcb9469aU, 0x3c29f1123d4e7cd8U, 0xbd4e6e18bd11c3cbU,
  0x3da0102cbd2bdf34U, 0x3d597238bd0f608cU, 0x3d0349d43c9d2d6eU, 0x3d7359f23c84a2e4U,
  0x3c218828bdb8d202U, 0xbdb9419abc932617U, 0x3d9566bebcc5b0d4U, 0xbc243100bceaffd4U,
  0x3d8766633d7ccfa2U, 0x3cbbaa71bcf418b2U, 0x3a846ddcbca98195U, 0xbd2a2fa7bda9c814U,
  0x3c4cb4c63d3be6acU, 0xbd90e0563d85fb38U, 0xbbb709a2bc475c2cU, 0xbd7ffbc9bd760347U,
  0x3d94186abd75f785U, 0xbd86902ebd759623U, 0x3d6bb86abd0b0aaaU, 0x3d3b95773d378159U,
  0xbd3606ab3cbe05faU, 0x3d886c71bce22e8cU, 0xbc9bf82eba69be70U, 0x3cb1320f3d9b20c8U,
  0x3d301d6f3da562efU, 0x3d5a9607bd3b67a9U, 0x3d8b42f1bc44afccU, 0xbd882d36bc41f06aU,
  0x3d6fe19e3d741283U, 0x3d5caba23d9178dbU, 0xbca244803d501d8eU, 0xbcee74fdbb83524eU,
  0xbc5cc1f03da20761U, 0x3d8ea9f63d265247U, 0x3c9715b13c0e023eU, 0xbd67d9003d8f13bdU,
  0x3ce60d62bcb33269U, 0xbd21737a3bb6ff2eU, 0xbc9553c83da5be5aU, 0xba3fa4503c3da9f2U,
  0xbcbde7833c87eba6U, 0x3bdf4ac7bd5cdf59U, 0xbd86c23e3a3f5948U, 0xbbe659c8bd9dc331U,
  0xbda19bdc3cdff385U, 0x3daa35943c638478U, 0xbda6f298bc73ca40U, 0x3c7307623b87fffeU,
  0x3cb5a5f43da77be1U, 0xbbf534a8bd8740fdU, 0x3d1832533c358b3cU, 0xbc96478dbd5d444bU,
